// TODO update with includes and change to alignas(16) const
#include <cstdint>
#include "simple_net.hpp"

alignas(16) const unsigned char simple_net_tflite[] = {
  0x1c, 0x00, 0x00, 0x00, 0x54, 0x46, 0x4c, 0x33, 0x14, 0x00, 0x20, 0x00,
  0x1c, 0x00, 0x18, 0x00, 0x14, 0x00, 0x10, 0x00, 0x0c, 0x00, 0x00, 0x00,
  0x08, 0x00, 0x04, 0x00, 0x14, 0x00, 0x00, 0x00, 0x1c, 0x00, 0x00, 0x00,
  0x90, 0x00, 0x00, 0x00, 0xe8, 0x00, 0x00, 0x00, 0x20, 0x19, 0x00, 0x00,
  0x30, 0x19, 0x00, 0x00, 0xe8, 0x1e, 0x00, 0x00, 0x03, 0x00, 0x00, 0x00,
  0x01, 0x00, 0x00, 0x00, 0x10, 0x00, 0x00, 0x00, 0x00, 0x00, 0x0a, 0x00,
  0x10, 0x00, 0x0c, 0x00, 0x08, 0x00, 0x04, 0x00, 0x0a, 0x00, 0x00, 0x00,
  0x0c, 0x00, 0x00, 0x00, 0x1c, 0x00, 0x00, 0x00, 0x3c, 0x00, 0x00, 0x00,
  0x0f, 0x00, 0x00, 0x00, 0x73, 0x65, 0x72, 0x76, 0x69, 0x6e, 0x67, 0x5f,
  0x64, 0x65, 0x66, 0x61, 0x75, 0x6c, 0x74, 0x00, 0x01, 0x00, 0x00, 0x00,
  0x04, 0x00, 0x00, 0x00, 0x98, 0xff, 0xff, 0xff, 0x0b, 0x00, 0x00, 0x00,
  0x04, 0x00, 0x00, 0x00, 0x08, 0x00, 0x00, 0x00, 0x6f, 0x75, 0x74, 0x70,
  0x75, 0x74, 0x5f, 0x30, 0x00, 0x00, 0x00, 0x00, 0x01, 0x00, 0x00, 0x00,
  0x04, 0x00, 0x00, 0x00, 0x76, 0xe7, 0xff, 0xff, 0x04, 0x00, 0x00, 0x00,
  0x06, 0x00, 0x00, 0x00, 0x61, 0x72, 0x67, 0x73, 0x5f, 0x30, 0x00, 0x00,
  0x02, 0x00, 0x00, 0x00, 0x34, 0x00, 0x00, 0x00, 0x04, 0x00, 0x00, 0x00,
  0xdc, 0xff, 0xff, 0xff, 0x0e, 0x00, 0x00, 0x00, 0x04, 0x00, 0x00, 0x00,
  0x13, 0x00, 0x00, 0x00, 0x43, 0x4f, 0x4e, 0x56, 0x45, 0x52, 0x53, 0x49,
  0x4f, 0x4e, 0x5f, 0x4d, 0x45, 0x54, 0x41, 0x44, 0x41, 0x54, 0x41, 0x00,
  0x08, 0x00, 0x0c, 0x00, 0x08, 0x00, 0x04, 0x00, 0x08, 0x00, 0x00, 0x00,
  0x0d, 0x00, 0x00, 0x00, 0x04, 0x00, 0x00, 0x00, 0x13, 0x00, 0x00, 0x00,
  0x6d, 0x69, 0x6e, 0x5f, 0x72, 0x75, 0x6e, 0x74, 0x69, 0x6d, 0x65, 0x5f,
  0x76, 0x65, 0x72, 0x73, 0x69, 0x6f, 0x6e, 0x00, 0x0f, 0x00, 0x00, 0x00,
  0x34, 0x18, 0x00, 0x00, 0x2c, 0x18, 0x00, 0x00, 0x14, 0x18, 0x00, 0x00,
  0xfc, 0x16, 0x00, 0x00, 0xec, 0x06, 0x00, 0x00, 0x5c, 0x06, 0x00, 0x00,
  0xcc, 0x05, 0x00, 0x00, 0xbc, 0x00, 0x00, 0x00, 0xb4, 0x00, 0x00, 0x00,
  0xac, 0x00, 0x00, 0x00, 0xa4, 0x00, 0x00, 0x00, 0x9c, 0x00, 0x00, 0x00,
  0x94, 0x00, 0x00, 0x00, 0x74, 0x00, 0x00, 0x00, 0x04, 0x00, 0x00, 0x00,
  0x26, 0xe8, 0xff, 0xff, 0x04, 0x00, 0x00, 0x00, 0x60, 0x00, 0x00, 0x00,
  0x10, 0x00, 0x00, 0x00, 0x00, 0x00, 0x00, 0x00, 0x08, 0x00, 0x0e, 0x00,
  0x08, 0x00, 0x04, 0x00, 0x08, 0x00, 0x00, 0x00, 0x10, 0x00, 0x00, 0x00,
  0x24, 0x00, 0x00, 0x00, 0x00, 0x00, 0x06, 0x00, 0x08, 0x00, 0x04, 0x00,
  0x06, 0x00, 0x00, 0x00, 0x04, 0x00, 0x00, 0x00, 0x00, 0x00, 0x00, 0x00,
  0x0c, 0x00, 0x18, 0x00, 0x14, 0x00, 0x10, 0x00, 0x0c, 0x00, 0x04, 0x00,
  0x0c, 0x00, 0x00, 0x00, 0x81, 0xf3, 0x24, 0xb2, 0x46, 0x82, 0x72, 0x7b,
  0x01, 0x00, 0x00, 0x00, 0x02, 0x00, 0x00, 0x00, 0x04, 0x00, 0x00, 0x00,
  0x06, 0x00, 0x00, 0x00, 0x32, 0x2e, 0x31, 0x37, 0x2e, 0x30, 0x00, 0x00,
  0x92, 0xe8, 0xff, 0xff, 0x04, 0x00, 0x00, 0x00, 0x10, 0x00, 0x00, 0x00,
  0x32, 0x2e, 0x30, 0x2e, 0x30, 0x00, 0x00, 0x00, 0x00, 0x00, 0x00, 0x00,
  0x00, 0x00, 0x00, 0x00, 0xb0, 0xe2, 0xff, 0xff, 0xb4, 0xe2, 0xff, 0xff,
  0xb8, 0xe2, 0xff, 0xff, 0xbc, 0xe2, 0xff, 0xff, 0xc0, 0xe2, 0xff, 0xff,
  0xc2, 0xe8, 0xff, 0xff, 0x04, 0x00, 0x00, 0x00, 0x00, 0x05, 0x00, 0x00,
  0xae, 0x70, 0x72, 0xbe, 0xe6, 0x3e, 0x7e, 0xbd, 0x20, 0x58, 0x2f, 0x3e,
  0x6c, 0x63, 0x1b, 0xbe, 0x48, 0x74, 0xfa, 0x3d, 0x98, 0x6c, 0xa3, 0x3e,
  0xaf, 0xb9, 0x03, 0x3e, 0xa0, 0x56, 0x0c, 0x3d, 0x7f, 0xfd, 0x14, 0xba,
  0x8b, 0xd1, 0x40, 0x3e, 0x4b, 0x17, 0x48, 0xbe, 0x9f, 0x90, 0x90, 0xbe,
  0x9d, 0x9e, 0xc5, 0xbd, 0x03, 0xd3, 0x24, 0xbe, 0xef, 0xc9, 0x1b, 0xbe,
  0x9d, 0xfe, 0x89, 0xbe, 0x77, 0xf0, 0x45, 0xbe, 0x2f, 0x49, 0x0d, 0x3c,
  0x82, 0x1c, 0x7e, 0x3e, 0x5d, 0x80, 0x2a, 0xbe, 0x59, 0xe1, 0xa8, 0xbe,
  0xd4, 0x24, 0xe0, 0x3d, 0x66, 0xf3, 0xbf, 0xbd, 0xdb, 0x68, 0xbb, 0xbd,
  0xe3, 0x26, 0x2e, 0x3d, 0x57, 0x75, 0x87, 0xbe, 0x74, 0x87, 0x76, 0x3e,
  0x1e, 0xdd, 0x5b, 0x3d, 0xd2, 0x86, 0x9f, 0xbe, 0xde, 0x30, 0xf2, 0xbd,
  0x77, 0xc3, 0x2b, 0xbd, 0x49, 0x56, 0x0d, 0xbe, 0xde, 0xa0, 0x7c, 0x3e,
  0xd6, 0x73, 0x16, 0xbe, 0xb9, 0x44, 0x7e, 0xbd, 0x3f, 0xe6, 0x91, 0x3e,
  0xbe, 0x0f, 0x50, 0x3e, 0x61, 0x05, 0x42, 0x3d, 0x92, 0xef, 0xd0, 0x3e,
  0xfe, 0xb7, 0xd0, 0x3d, 0x92, 0x0a, 0xc2, 0x3e, 0x3d, 0x75, 0x07, 0x3e,
  0xb4, 0x98, 0xdb, 0xbd, 0x00, 0x86, 0x3d, 0xbe, 0xdc, 0x5c, 0xa0, 0xbd,
  0x1d, 0xb0, 0x6c, 0xbe, 0x9a, 0x66, 0x7a, 0x3e, 0xdd, 0x1a, 0x7a, 0x3e,
  0x60, 0x5d, 0x80, 0x3d, 0x70, 0x9e, 0x5a, 0x3e, 0x3f, 0x01, 0x57, 0x3d,
  0x3b, 0xac, 0x77, 0x3e, 0x9d, 0xde, 0xd1, 0xbd, 0xa0, 0x19, 0x5b, 0x3e,
  0x66, 0x99, 0x49, 0x3e, 0x34, 0xf5, 0xc4, 0x3c, 0xff, 0x68, 0x99, 0xbd,
  0xf6, 0x64, 0xae, 0x3e, 0xbb, 0xf6, 0xac, 0x3e, 0x4e, 0x3f, 0x0a, 0x3e,
  0x0f, 0xb3, 0x50, 0xbe, 0x2d, 0x8a, 0x07, 0xbe, 0x5f, 0x06, 0x25, 0xbe,
  0x7c, 0x94, 0x30, 0xbd, 0xb8, 0x01, 0x31, 0x3e, 0x38, 0x46, 0x25, 0x3e,
  0xab, 0xb2, 0xea, 0x3e, 0x0c, 0x0b, 0x10, 0x3f, 0x1f, 0x53, 0xbb, 0x3e,
  0x3b, 0xcb, 0x06, 0x3f, 0x4f, 0xc6, 0x87, 0x3e, 0x78, 0x92, 0x57, 0xbe,
  0xcf, 0x89, 0x9e, 0x3c, 0x4a, 0x2c, 0x06, 0x3e, 0x09, 0xf5, 0x50, 0xbe,
  0xfd, 0xb6, 0x17, 0x3e, 0x5d, 0x97, 0xe1, 0xbd, 0x3d, 0xe2, 0x18, 0x3e,
  0x1c, 0x05, 0xa0, 0x3e, 0x38, 0x14, 0x3f, 0x3d, 0x81, 0xfe, 0x56, 0x3e,
  0x11, 0x79, 0x93, 0x3e, 0xdc, 0xb7, 0xdd, 0x3d, 0x9b, 0x36, 0x8d, 0x3d,
  0x66, 0xaa, 0x2c, 0x3e, 0x52, 0x09, 0x82, 0xbe, 0xf4, 0xf5, 0x8b, 0x3e,
  0x6b, 0x84, 0xca, 0x3d, 0x28, 0x3b, 0x2d, 0x3e, 0x14, 0x2f, 0x23, 0x3d,
  0xca, 0x38, 0x24, 0x3d, 0x54, 0x12, 0x0b, 0xbe, 0x91, 0x5d, 0xfa, 0x3d,
  0xc4, 0x2b, 0x62, 0x3e, 0x4a, 0xa7, 0xa7, 0xbd, 0x26, 0xa8, 0xb7, 0x3e,
  0xe3, 0xc1, 0x70, 0xbc, 0xf2, 0xa0, 0xeb, 0x3a, 0x54, 0x40, 0x37, 0xbe,
  0xbf, 0x86, 0x7b, 0x3e, 0xab, 0x1a, 0xe2, 0xbd, 0x98, 0x8e, 0xb2, 0x3d,
  0x3d, 0xa4, 0xb4, 0x3d, 0x9e, 0xb8, 0x1e, 0x3e, 0x43, 0x00, 0xb2, 0x3e,
  0xbb, 0xc7, 0xee, 0x3d, 0x63, 0x30, 0xc8, 0x3e, 0x66, 0xbd, 0x17, 0x3e,
  0x54, 0x70, 0xbf, 0x3e, 0x45, 0x2d, 0x5b, 0x3d, 0x6a, 0x01, 0x82, 0xbe,
  0xb6, 0x5f, 0x81, 0x3e, 0xfe, 0xf4, 0xac, 0x3c, 0x15, 0x09, 0x5b, 0xbe,
  0x5e, 0x58, 0x02, 0xbe, 0x34, 0x61, 0x08, 0x3e, 0x87, 0x08, 0x48, 0xbe,
  0x68, 0x5d, 0x75, 0xbe, 0x9b, 0xf2, 0x7c, 0x3e, 0xc7, 0xaf, 0x50, 0xbe,
  0xbe, 0x89, 0xca, 0x3d, 0x86, 0x98, 0x70, 0x3e, 0x6a, 0x63, 0xff, 0x3e,
  0x9b, 0x77, 0x7f, 0x3e, 0x7a, 0x72, 0x08, 0x3f, 0x4a, 0xac, 0xa3, 0xbd,
  0x57, 0x00, 0x35, 0xbd, 0xc1, 0x49, 0x64, 0xbe, 0x96, 0x07, 0x2f, 0xbe,
  0x7b, 0x60, 0x27, 0xbe, 0x44, 0x93, 0x27, 0x3e, 0xa8, 0x1a, 0xb2, 0x3e,
  0x98, 0x64, 0xd8, 0x3e, 0x88, 0xf5, 0x57, 0x3e, 0x3d, 0x1a, 0xce, 0x3e,
  0x67, 0x79, 0x83, 0xba, 0xc0, 0x75, 0xcf, 0xbd, 0xde, 0x48, 0x85, 0x3e,
  0xd3, 0x6f, 0x18, 0xbe, 0x73, 0xc7, 0x76, 0x3e, 0x1e, 0xac, 0x76, 0xbd,
  0x37, 0x80, 0x88, 0x3e, 0xeb, 0x86, 0x28, 0xbe, 0x6d, 0x36, 0x03, 0xbd,
  0xa5, 0xfc, 0xb6, 0x3d, 0xc5, 0x37, 0x6a, 0xbd, 0xce, 0x40, 0x64, 0xbe,
  0xac, 0x06, 0x84, 0xbc, 0x95, 0x05, 0x49, 0x3e, 0xa6, 0x55, 0x47, 0x3e,
  0x80, 0x62, 0x3f, 0x3e, 0x18, 0x35, 0x73, 0x3e, 0x53, 0xb2, 0xbb, 0x3e,
  0x12, 0x80, 0x6d, 0x3d, 0xe0, 0x84, 0x35, 0xbd, 0x08, 0x10, 0x90, 0x3e,
  0xce, 0x36, 0x33, 0x3e, 0x16, 0xd2, 0x42, 0xbe, 0xd4, 0x26, 0x98, 0x3e,
  0x7e, 0x98, 0xc2, 0x3e, 0x50, 0xf8, 0xe1, 0x3d, 0x7d, 0xbd, 0xc7, 0x3e,
  0x4e, 0x95, 0xab, 0x3b, 0x81, 0x73, 0xa7, 0x3e, 0x01, 0x2a, 0x46, 0x3e,
  0x0a, 0xed, 0x99, 0x3e, 0x7a, 0x14, 0x07, 0xbe, 0x73, 0xd1, 0x0e, 0xbe,
  0xfb, 0xa3, 0x9a, 0x3b, 0x5c, 0x84, 0x11, 0x3d, 0xe5, 0xe8, 0xe6, 0x3e,
  0x6d, 0xed, 0xa0, 0x3d, 0x0c, 0x5c, 0x5d, 0x3e, 0xda, 0x7e, 0xc7, 0x3e,
  0xc6, 0xd4, 0xb5, 0x3e, 0xa2, 0xd7, 0xb3, 0xbe, 0x70, 0x5b, 0x7c, 0xbd,
  0x8e, 0xd4, 0x88, 0xb9, 0xef, 0x17, 0xa9, 0xbd, 0xc7, 0x60, 0x00, 0xbe,
  0x86, 0x9e, 0xbb, 0x3e, 0xbd, 0xc5, 0x43, 0x3e, 0xce, 0x9a, 0x5a, 0xbe,
  0x52, 0xcb, 0x5a, 0x3e, 0xcc, 0xef, 0x17, 0x3e, 0x87, 0xb2, 0x69, 0x3e,
  0x44, 0xa7, 0x97, 0xbd, 0x92, 0x6a, 0x08, 0xbd, 0xeb, 0xad, 0x9d, 0x3e,
  0xa0, 0xa3, 0x78, 0x3e, 0x81, 0xa3, 0x6c, 0x3e, 0xa5, 0xf5, 0xab, 0x3e,
  0xdf, 0xc3, 0xd2, 0xbd, 0xe4, 0x80, 0x44, 0xbd, 0x75, 0x95, 0x49, 0x3d,
  0xdb, 0x52, 0x7f, 0x3e, 0x7b, 0x8c, 0x9c, 0x3e, 0x56, 0x43, 0x08, 0xbd,
  0x0f, 0x45, 0x86, 0x3d, 0x5f, 0x6d, 0x3f, 0x3c, 0x53, 0x69, 0x1d, 0x3e,
  0xdc, 0x07, 0xae, 0xbd, 0x42, 0x7d, 0x44, 0xbe, 0x17, 0x15, 0x25, 0x3e,
  0xdf, 0x5e, 0x1c, 0x3e, 0xc2, 0x21, 0xb6, 0xbd, 0x5f, 0x1f, 0xfa, 0x3c,
  0x9a, 0xde, 0x79, 0x3e, 0x5f, 0xd7, 0xa5, 0xbc, 0x4c, 0x6e, 0x95, 0xbd,
  0xf1, 0x29, 0x14, 0x3d, 0x4c, 0x0e, 0x1c, 0x3c, 0xf5, 0x0b, 0x8f, 0x3c,
  0xe1, 0x86, 0x6e, 0x3e, 0x2c, 0xa1, 0x43, 0x3e, 0xdb, 0xeb, 0xfd, 0x3e,
  0xe3, 0x58, 0x5e, 0x3e, 0x13, 0xe6, 0xc9, 0x3e, 0xa1, 0x1c, 0xfb, 0x3c,
  0x11, 0x01, 0x15, 0x3e, 0x62, 0x37, 0x3c, 0xbe, 0x1c, 0x39, 0x8b, 0xbd,
  0xd1, 0xd5, 0xd0, 0x3e, 0xa5, 0x7c, 0x4f, 0xbe, 0x25, 0x04, 0x03, 0xbe,
  0x5d, 0x9c, 0x1f, 0xbe, 0x98, 0xcb, 0xb7, 0x3e, 0x66, 0x1d, 0xc5, 0x3e,
  0x4f, 0x83, 0x1a, 0xbc, 0x25, 0x0b, 0x01, 0xbe, 0xbe, 0x47, 0x32, 0xbe,
  0x3e, 0x15, 0xa0, 0x3e, 0x11, 0xf7, 0x81, 0x3e, 0x7e, 0x55, 0x63, 0x3e,
  0xb8, 0x68, 0xd9, 0x3d, 0x50, 0xff, 0x0b, 0x3e, 0x91, 0xee, 0x95, 0x3e,
  0xfe, 0x38, 0x96, 0x3e, 0x8a, 0x08, 0x0f, 0x3e, 0xc6, 0x78, 0xda, 0x3c,
  0x91, 0xaf, 0xa5, 0x3e, 0x28, 0x26, 0xa6, 0x3e, 0x7c, 0x71, 0x14, 0x3e,
  0xfa, 0xa1, 0xa2, 0x3e, 0x62, 0x8f, 0x8d, 0xbd, 0xb2, 0x3a, 0x48, 0xbe,
  0x50, 0x95, 0x26, 0xbe, 0x7d, 0x35, 0xc9, 0x3e, 0xc6, 0x9d, 0x9b, 0x3d,
  0xad, 0xaa, 0xc9, 0x3c, 0x12, 0x5a, 0x35, 0x3d, 0xb1, 0x91, 0xec, 0x3c,
  0x72, 0xf8, 0x13, 0x3d, 0x69, 0x95, 0x50, 0xbe, 0xe6, 0xd4, 0xc8, 0x3e,
  0x26, 0xf0, 0x41, 0xbd, 0xe7, 0x35, 0x86, 0xbd, 0xad, 0xf8, 0x84, 0x3d,
  0x79, 0xc0, 0x40, 0xbe, 0x48, 0x25, 0xa9, 0x3d, 0xef, 0x82, 0xc8, 0x3e,
  0xc6, 0xc5, 0xa1, 0xbd, 0xcd, 0x8b, 0xce, 0x3e, 0x24, 0xf7, 0x58, 0x3d,
  0xb7, 0xe1, 0xbe, 0x3e, 0xc5, 0x52, 0x44, 0x3e, 0x19, 0xf9, 0xfd, 0xbd,
  0x27, 0x09, 0x80, 0xbc, 0x90, 0x90, 0xd1, 0x3e, 0xb7, 0x45, 0xc8, 0x3e,
  0x3f, 0x8e, 0x1d, 0x3e, 0xdd, 0xfa, 0x54, 0x3e, 0x0c, 0xdb, 0x6f, 0xbc,
  0x21, 0x92, 0x5c, 0xbd, 0x8b, 0x65, 0xd3, 0x3d, 0xac, 0x7b, 0xbf, 0xbb,
  0x51, 0x6d, 0x99, 0x3e, 0xc1, 0x75, 0x43, 0x3d, 0x63, 0xd5, 0x0f, 0xbe,
  0x53, 0x66, 0x30, 0xbd, 0xbd, 0x91, 0xad, 0x3e, 0xaa, 0x94, 0xf6, 0x3d,
  0x7f, 0xcb, 0xb8, 0xbd, 0x96, 0x13, 0x0c, 0x3e, 0xcb, 0xb2, 0xdb, 0x3d,
  0x59, 0x0e, 0x45, 0x3e, 0xf6, 0x88, 0xc2, 0x3e, 0x31, 0x46, 0xe7, 0xbd,
  0xcb, 0xa3, 0xb2, 0x3c, 0x71, 0x09, 0x4e, 0xbe, 0x76, 0x6e, 0x72, 0xbe,
  0x20, 0x5e, 0xfb, 0x3c, 0x7f, 0x15, 0x71, 0xbe, 0xbe, 0x8b, 0x26, 0x3e,
  0xc1, 0xd3, 0x85, 0x3e, 0xd0, 0x81, 0xe9, 0x3d, 0xbf, 0x3d, 0x6a, 0x3d,
  0xa1, 0x6c, 0xf0, 0xbd, 0x42, 0x13, 0x16, 0xbd, 0x04, 0x27, 0x14, 0x3e,
  0x95, 0x7b, 0x42, 0xbe, 0x6e, 0x41, 0xbf, 0x3d, 0x13, 0x9f, 0x55, 0x3e,
  0xe4, 0xfe, 0xbd, 0x3d, 0x0d, 0xdc, 0xb8, 0x3e, 0x3b, 0x10, 0x2b, 0x3e,
  0xe9, 0xba, 0x2a, 0x3e, 0x6f, 0x75, 0x16, 0x3e, 0xdf, 0x64, 0x83, 0x3e,
  0xd8, 0xb8, 0xab, 0xbc, 0x39, 0x88, 0x2b, 0xbd, 0x48, 0x13, 0x59, 0x3e,
  0x62, 0xad, 0xb9, 0x3e, 0x32, 0xd9, 0xaa, 0x3e, 0x6b, 0x24, 0x9a, 0x3e,
  0x09, 0x74, 0x93, 0x3e, 0xca, 0xc5, 0x09, 0x3e, 0x92, 0xee, 0xe5, 0x3c,
  0x6b, 0x32, 0xf1, 0xbd, 0x2f, 0xa7, 0x43, 0x3b, 0xce, 0xed, 0xff, 0xff,
  0x04, 0x00, 0x00, 0x00, 0x80, 0x00, 0x00, 0x00, 0x9a, 0x3a, 0x00, 0x3e,
  0x4e, 0x73, 0x96, 0xbe, 0x5e, 0x80, 0xba, 0xbd, 0x3a, 0xc2, 0x33, 0x3c,
  0xe9, 0x5c, 0x8d, 0x3e, 0x31, 0x60, 0x6a, 0x3d, 0xe7, 0x0f, 0x40, 0x3a,
  0x16, 0xb1, 0x65, 0x3e, 0xc2, 0x66, 0x33, 0xbe, 0x15, 0xb9, 0x76, 0x3e,
  0x8d, 0xdc, 0x08, 0x3e, 0x8f, 0xf5, 0x26, 0xbe, 0x70, 0xdd, 0x63, 0x3e,
  0x82, 0x2d, 0x3c, 0x3e, 0xdd, 0x33, 0x9b, 0x3e, 0xf9, 0xdc, 0x45, 0x3e,
  0x17, 0x36, 0x8f, 0xbd, 0x66, 0x75, 0x4d, 0x3e, 0xcf, 0x4f, 0x44, 0x3e,
  0x74, 0xae, 0x42, 0x3e, 0xbf, 0x6c, 0x63, 0x3e, 0x88, 0xfe, 0x8b, 0xbe,
  0x0c, 0xe7, 0xfb, 0x3d, 0xae, 0x62, 0x83, 0x3e, 0x5a, 0xa0, 0x74, 0x3d,
  0x4a, 0xf7, 0x8a, 0x3e, 0x6b, 0x67, 0xa3, 0xbe, 0x36, 0xcb, 0x36, 0xbc,
  0x51, 0x5c, 0x93, 0x3e, 0x74, 0x06, 0xa6, 0xbe, 0xe3, 0x8e, 0x5e, 0x3e,
  0x2a, 0x3f, 0x4e, 0xbe, 0x5a, 0xee, 0xff, 0xff, 0x04, 0x00, 0x00, 0x00,
  0x80, 0x00, 0x00, 0x00, 0xf4, 0xba, 0xc7, 0x3d, 0xa0, 0xb5, 0x02, 0xbe,
  0x40, 0x4b, 0x92, 0x3c, 0x96, 0xf1, 0x95, 0xbd, 0x80, 0x87, 0x45, 0x3d,
  0x5a, 0x8c, 0x06, 0xbe, 0x70, 0x14, 0xbe, 0xbc, 0x45, 0xae, 0x48, 0xba,
  0xae, 0xae, 0x6b, 0xbc, 0x3e, 0xc8, 0x01, 0x3e, 0xd4, 0x15, 0xe7, 0x3d,
  0xd1, 0x71, 0xa4, 0xbd, 0xdf, 0x41, 0xe4, 0x3d, 0x7b, 0xa2, 0xa3, 0x3c,
  0x8a, 0x33, 0x02, 0x3d, 0x18, 0x44, 0x43, 0xbd, 0x0f, 0x83, 0x35, 0x3e,
  0x7c, 0x67, 0xa9, 0xbd, 0x08, 0x19, 0x2c, 0xbe, 0x01, 0x19, 0x0d, 0x3e,
  0xc0, 0xbd, 0x14, 0x3e, 0x3f, 0x96, 0xf3, 0x3d, 0xcb, 0x51, 0x63, 0xbb,
  0xed, 0xd5, 0x9c, 0xbd, 0xea, 0x41, 0x53, 0x3e, 0x1e, 0xa7, 0x00, 0x3e,
  0x77, 0x77, 0x52, 0x3e, 0xe9, 0x69, 0xcc, 0x3d, 0xe6, 0xd8, 0x9d, 0x3d,
  0x7c, 0x5f, 0xda, 0x3d, 0xae, 0x40, 0xa0, 0x3d, 0x25, 0xe9, 0xea, 0xbd,
  0xe6, 0xee, 0xff, 0xff, 0x04, 0x00, 0x00, 0x00, 0x00, 0x10, 0x00, 0x00,
  0x06, 0x77, 0xe1, 0xbd, 0x4f, 0x06, 0x91, 0x3d, 0xff, 0xce, 0x3f, 0x3a,
  0x81, 0x6c, 0x02, 0x3e, 0x35, 0x9d, 0x59, 0x3e, 0xce, 0x53, 0x4f, 0xbd,
  0xff, 0x6a, 0x8d, 0x3e, 0xc1, 0x80, 0x14, 0x3e, 0x8b, 0x1c, 0x38, 0x3d,
  0xbd, 0x08, 0x68, 0x3e, 0xbd, 0xd8, 0x4c, 0x3c, 0xb3, 0xc2, 0xd9, 0x3d,
  0x29, 0xf8, 0x8d, 0xbe, 0xa2, 0xb9, 0xaa, 0x3d, 0xa1, 0x77, 0x93, 0xbe,
  0x12, 0xe5, 0x81, 0x3e, 0xd6, 0xab, 0x6b, 0xbc, 0xae, 0xf3, 0xec, 0x3c,
  0xdf, 0xfa, 0x90, 0xbd, 0x8e, 0xa7, 0x81, 0xbd, 0x35, 0xa1, 0x30, 0xbd,
  0x38, 0xfb, 0x45, 0x3e, 0x6e, 0xc6, 0xc6, 0xbd, 0xa0, 0x89, 0xdf, 0x3c,
  0x41, 0x3f, 0x02, 0x3d, 0xb3, 0x6b, 0x38, 0x3d, 0x52, 0x23, 0xaf, 0x3d,
  0x75, 0x7a, 0x45, 0x3e, 0x7b, 0x7c, 0x8a, 0xbd, 0x21, 0xd4, 0xa4, 0x3d,
  0xc2, 0x4b, 0x0a, 0xbb, 0x25, 0xcf, 0x08, 0x3d, 0x48, 0x4f, 0xd7, 0x3d,
  0x79, 0x45, 0xb5, 0x3b, 0x96, 0xb0, 0xd1, 0x3c, 0x80, 0x76, 0x07, 0xbe,
  0xd2, 0x64, 0x82, 0xbd, 0x63, 0x7c, 0xac, 0x3d, 0x17, 0x77, 0x94, 0x3d,
  0x79, 0x53, 0x18, 0x3e, 0x21, 0xdb, 0x13, 0xbe, 0xbd, 0xa2, 0x21, 0xbd,
  0xf3, 0xf4, 0x30, 0xbd, 0x64, 0x34, 0x32, 0xbe, 0x44, 0x3b, 0x3d, 0x3c,
  0xbd, 0xc1, 0x76, 0xbd, 0xa3, 0x44, 0x9f, 0xbd, 0xc8, 0xeb, 0x6f, 0xbd,
  0xce, 0xe0, 0x9e, 0x3d, 0x92, 0x34, 0x2c, 0xbe, 0xc8, 0xc5, 0x26, 0xbc,
  0x88, 0x07, 0x07, 0xbd, 0xe1, 0xa2, 0x39, 0x3c, 0x49, 0x04, 0xb5, 0xbc,
  0xbc, 0x70, 0xc0, 0x3d, 0x4a, 0x36, 0xff, 0x3d, 0x3d, 0x64, 0x5a, 0xbd,
  0x0d, 0x67, 0x13, 0xbe, 0x34, 0x4a, 0x10, 0xbe, 0x26, 0x8b, 0x95, 0x3d,
  0x06, 0xfe, 0xfd, 0x3d, 0xec, 0xf9, 0x9b, 0xbc, 0xce, 0x19, 0x34, 0xbe,
  0x4c, 0x80, 0xca, 0x3b, 0xc9, 0xac, 0x07, 0xbc, 0x16, 0x96, 0x06, 0xbe,
  0x99, 0x4b, 0x04, 0xbd, 0xb6, 0x00, 0x2b, 0xbd, 0xe9, 0xb1, 0x4e, 0x3e,
  0x00, 0x82, 0xb1, 0x3d, 0x4b, 0xd1, 0x88, 0xbe, 0x01, 0x96, 0x41, 0x3e,
  0xf3, 0x71, 0x60, 0x3e, 0xa9, 0x27, 0x7f, 0xbd, 0xa4, 0x7a, 0x5d, 0x3d,
  0xd8, 0xca, 0x18, 0xbd, 0x15, 0x06, 0x91, 0x3e, 0xa4, 0xbe, 0x80, 0x3e,
  0x9c, 0x8b, 0x09, 0xbc, 0x70, 0xcf, 0x6c, 0x3e, 0x0b, 0x83, 0x13, 0x3e,
  0x52, 0x47, 0xaf, 0x3d, 0x94, 0xf3, 0x48, 0x3e, 0x08, 0x46, 0xbc, 0xbd,
  0x31, 0x7b, 0xee, 0xbd, 0x71, 0xb3, 0x8c, 0x3d, 0xaa, 0x2c, 0x28, 0xbd,
  0xd9, 0x2b, 0x56, 0xbd, 0x76, 0xc8, 0x61, 0x3d, 0xc1, 0xf3, 0x04, 0x3d,
  0xcb, 0x50, 0x8c, 0x3e, 0x60, 0x25, 0xd6, 0x3d, 0x8d, 0x5a, 0x73, 0x3a,
  0x30, 0xee, 0x12, 0xbd, 0x41, 0xde, 0x68, 0xbc, 0x57, 0x2b, 0x04, 0x3e,
  0x6a, 0xd8, 0xa5, 0xbb, 0xf0, 0xeb, 0xa7, 0x3c, 0x04, 0x0c, 0x27, 0xbe,
  0x18, 0x6c, 0x6e, 0xbe, 0x26, 0x63, 0x1d, 0xbd, 0xbe, 0x4a, 0xbf, 0xbd,
  0x28, 0x59, 0x2c, 0xbe, 0x10, 0xfa, 0xda, 0x3d, 0x17, 0x15, 0x43, 0x3e,
  0x10, 0x4f, 0x1d, 0x3d, 0x2f, 0x96, 0xc9, 0x3c, 0x11, 0xc5, 0x23, 0x3d,
  0x86, 0x08, 0xb7, 0x3e, 0x08, 0x9d, 0x4c, 0x3e, 0x8e, 0x01, 0xa3, 0x3d,
  0xb5, 0x27, 0x49, 0xbd, 0x22, 0xf5, 0xd9, 0x3d, 0xc1, 0x49, 0x8c, 0x3e,
  0x38, 0xc2, 0x21, 0x3e, 0xa9, 0x74, 0xa8, 0xbd, 0x04, 0x89, 0xa1, 0x3d,
  0xaa, 0xb1, 0x36, 0xbe, 0x2e, 0x61, 0x46, 0xbd, 0x40, 0xec, 0x17, 0x3e,
  0xb0, 0x5c, 0xc9, 0x3d, 0x6e, 0x59, 0x33, 0x3e, 0x85, 0x9d, 0x05, 0x3e,
  0x54, 0xb5, 0x95, 0x3b, 0x03, 0x7f, 0x3b, 0x3e, 0x40, 0x58, 0xf3, 0xbd,
  0x23, 0x15, 0xa7, 0xbb, 0x80, 0xf5, 0xa7, 0x3d, 0xb7, 0x2a, 0x80, 0x3e,
  0x86, 0xf0, 0x31, 0xbd, 0x95, 0x51, 0xe6, 0x3d, 0x4b, 0x2a, 0x96, 0x3e,
  0x13, 0x7f, 0x4b, 0x3e, 0x4a, 0xb7, 0x83, 0xbd, 0x8a, 0x1c, 0x8c, 0x3e,
  0x4e, 0xec, 0xbb, 0xbc, 0x01, 0x89, 0xed, 0x3c, 0xac, 0xb0, 0x2f, 0x3e,
  0xde, 0x0d, 0x40, 0x3e, 0x1f, 0xbe, 0xce, 0x3d, 0x73, 0x6d, 0xac, 0xbe,
  0x35, 0xdb, 0xdc, 0xbd, 0xd2, 0x10, 0x7e, 0x3d, 0xb4, 0x18, 0x6f, 0x3e,
  0x00, 0x83, 0xd7, 0xbd, 0x0c, 0xce, 0x69, 0xbd, 0xbc, 0xc7, 0x48, 0x3e,
  0x0a, 0xb0, 0x01, 0x3e, 0x97, 0x50, 0xc0, 0x3d, 0xbc, 0x82, 0x7b, 0x3e,
  0xb7, 0xb0, 0x1b, 0x3e, 0xd8, 0xfd, 0x1d, 0x3e, 0x99, 0x39, 0x28, 0x3e,
  0xa6, 0x07, 0x86, 0xbc, 0x0f, 0xc5, 0x86, 0x3e, 0xf7, 0xac, 0x8e, 0xbd,
  0xa2, 0x50, 0x59, 0x3e, 0xc3, 0xfb, 0x45, 0xbd, 0x8f, 0x64, 0xac, 0xbc,
  0xd3, 0x10, 0x74, 0x3e, 0xd1, 0x7d, 0x10, 0x3c, 0x7d, 0x5d, 0x18, 0x3d,
  0x06, 0x98, 0x21, 0x3e, 0xad, 0x34, 0x1a, 0xbe, 0x89, 0x75, 0x2c, 0xbe,
  0x3a, 0xee, 0x0b, 0x3e, 0x49, 0xde, 0xc4, 0x3c, 0x79, 0x57, 0x18, 0x3e,
  0x47, 0x98, 0x20, 0x3e, 0xca, 0x2f, 0xcb, 0xbd, 0x00, 0xf5, 0x44, 0x3d,
  0xf9, 0x92, 0x92, 0x3c, 0xc8, 0x08, 0xd9, 0xbd, 0x24, 0x90, 0x28, 0x3d,
  0xad, 0xf1, 0x46, 0x3d, 0x54, 0x96, 0xac, 0xbd, 0xea, 0x43, 0x6e, 0xbc,
  0x35, 0x41, 0x0c, 0xbe, 0x8e, 0x88, 0xf1, 0x3c, 0xc8, 0x98, 0xd8, 0xbd,
  0x81, 0xe6, 0x1e, 0x3e, 0x52, 0x48, 0x3a, 0xbd, 0x2f, 0x0c, 0x1b, 0x3e,
  0x40, 0x56, 0xc3, 0xbd, 0xb5, 0x26, 0x9d, 0x3c, 0x07, 0x87, 0xc5, 0xbd,
  0xb1, 0xc3, 0x28, 0x3c, 0xe9, 0xfa, 0x94, 0x3c, 0x88, 0xae, 0xd5, 0xbc,
  0xde, 0x74, 0x25, 0xbd, 0x02, 0xbe, 0x96, 0xbd, 0x64, 0x74, 0xf3, 0x3d,
  0x0f, 0x96, 0x9c, 0x3b, 0x34, 0xd0, 0x6b, 0x3d, 0x9d, 0x19, 0xd6, 0xbd,
  0x43, 0xd7, 0xbf, 0xbc, 0xae, 0xb9, 0x9c, 0xbd, 0xad, 0x8e, 0xd1, 0xbd,
  0x39, 0x1c, 0x56, 0x3d, 0xb5, 0xd7, 0x64, 0xbc, 0x08, 0xce, 0xb5, 0x3d,
  0x71, 0x49, 0x11, 0xbd, 0x3e, 0xf7, 0x29, 0x3d, 0x30, 0xbf, 0x07, 0xbe,
  0x65, 0x0d, 0x99, 0xbd, 0xd4, 0x94, 0xc5, 0x3d, 0xca, 0x74, 0xcd, 0x3d,
  0xb6, 0x6e, 0x0a, 0xbe, 0x58, 0x0f, 0xfb, 0x3d, 0xfa, 0x72, 0xcd, 0xbd,
  0x5f, 0x34, 0xf2, 0xbd, 0xe3, 0x48, 0x72, 0xbd, 0xf6, 0xd5, 0x23, 0xbe,
  0x2d, 0x07, 0xb6, 0x3d, 0x23, 0x54, 0x80, 0xbd, 0x36, 0x55, 0x4d, 0x3d,
  0xa3, 0xb0, 0x97, 0x3d, 0xc3, 0x77, 0xa3, 0x3d, 0xc4, 0x1d, 0x4a, 0xbd,
  0x11, 0xd6, 0xb5, 0xbd, 0xb7, 0xb0, 0x8a, 0x3d, 0xe4, 0x74, 0x2d, 0x3c,
  0xc6, 0x47, 0xd6, 0xbd, 0x6b, 0x18, 0x52, 0xbd, 0xb8, 0xcf, 0x32, 0x3e,
  0x23, 0x57, 0xa7, 0xbd, 0x94, 0x33, 0xc8, 0x3d, 0xab, 0xf8, 0x8e, 0x3e,
  0x0c, 0xad, 0x72, 0x3d, 0x88, 0x3d, 0x15, 0x3e, 0xfb, 0x55, 0xfd, 0x3e,
  0x71, 0xe2, 0x08, 0x3e, 0x17, 0xcd, 0x6b, 0x3e, 0x6c, 0xd1, 0xac, 0x39,
  0x21, 0x18, 0x1d, 0x3e, 0xaa, 0xc7, 0x85, 0xbc, 0x06, 0x4b, 0x31, 0xbe,
  0x3f, 0x42, 0x31, 0x3e, 0x70, 0x2b, 0x41, 0xbd, 0xa5, 0x01, 0x84, 0x3d,
  0x27, 0x05, 0x8c, 0x3d, 0x18, 0x26, 0x2f, 0xbd, 0x05, 0x9d, 0x65, 0x3d,
  0x4c, 0x72, 0xa7, 0x3d, 0x65, 0xf9, 0xba, 0xbd, 0x75, 0x40, 0x20, 0x3e,
  0xfe, 0x54, 0x1b, 0x3d, 0x27, 0x6f, 0x09, 0x3d, 0xd1, 0xd0, 0x83, 0xbd,
  0x9a, 0xb9, 0x3b, 0x3e, 0x86, 0xe9, 0x77, 0x3d, 0xd3, 0x4b, 0xf6, 0xbc,
  0xef, 0x94, 0xc2, 0x3b, 0x95, 0x16, 0x8a, 0xbd, 0xd8, 0xa9, 0x4a, 0x3e,
  0x4c, 0xa5, 0x1c, 0x3e, 0x40, 0x97, 0x12, 0x3e, 0xd7, 0x5d, 0x06, 0xbe,
  0x13, 0xed, 0x1e, 0xbe, 0xa7, 0xd1, 0xbc, 0x3d, 0xeb, 0xae, 0x2d, 0xbd,
  0x20, 0xf9, 0x1d, 0xbe, 0xc0, 0x81, 0xb8, 0x3d, 0x17, 0xd7, 0x85, 0xbd,
  0xe9, 0x02, 0xac, 0xbd, 0x51, 0x6e, 0x66, 0x3d, 0x37, 0x5e, 0x43, 0xbd,
  0x0d, 0x46, 0xef, 0x3c, 0x24, 0x2c, 0xb9, 0x3d, 0x68, 0x9c, 0x17, 0xbe,
  0xb0, 0x36, 0x9c, 0xbd, 0x32, 0x88, 0x1f, 0xbe, 0x45, 0xd5, 0x22, 0x3e,
  0x47, 0x8a, 0x10, 0xbd, 0x81, 0x1e, 0x91, 0x3d, 0xb2, 0xf3, 0x09, 0xbe,
  0xb1, 0x07, 0x29, 0x3e, 0x99, 0x21, 0xdd, 0xbd, 0xd4, 0x24, 0x9f, 0xbd,
  0x13, 0x90, 0x0d, 0xbe, 0xad, 0x1b, 0xff, 0x3b, 0xe5, 0x4d, 0x28, 0x3d,
  0x97, 0x88, 0x32, 0x3e, 0x9f, 0xf7, 0xe7, 0xbc, 0x52, 0xc0, 0x01, 0xbd,
  0x62, 0xca, 0xc2, 0xbd, 0xb5, 0x58, 0x0d, 0xbe, 0xe7, 0x5c, 0xc0, 0xbd,
  0x1b, 0x9f, 0xf1, 0x3d, 0x30, 0x09, 0x25, 0xbe, 0x2f, 0x36, 0xef, 0xbc,
  0x45, 0x26, 0xc2, 0x3e, 0xfc, 0xca, 0x40, 0x3e, 0x53, 0x97, 0xcc, 0x3d,
  0x14, 0x8b, 0xf4, 0x3e, 0xf8, 0x09, 0x00, 0x3c, 0x79, 0xe9, 0x2a, 0x3c,
  0x95, 0x84, 0x34, 0x3e, 0x80, 0xc7, 0x1a, 0x3d, 0x00, 0xcb, 0x43, 0xbc,
  0x58, 0x92, 0x04, 0xbf, 0xea, 0xbe, 0x27, 0x3e, 0xdf, 0xb5, 0xc7, 0xbc,
  0x8e, 0x56, 0xa2, 0x3d, 0x70, 0xe3, 0xcf, 0x3c, 0x8f, 0x00, 0x1f, 0xbe,
  0x10, 0x46, 0x33, 0x3e, 0x6b, 0x45, 0x21, 0x3d, 0x3b, 0xd1, 0x02, 0xbe,
  0x4a, 0xe8, 0x44, 0x3e, 0xf0, 0x9d, 0x8e, 0xbc, 0x18, 0x2b, 0x40, 0x3e,
  0xe4, 0x91, 0xd4, 0x3d, 0x65, 0xea, 0x1e, 0xbe, 0x4c, 0x96, 0xfa, 0x3d,
  0x67, 0x3a, 0x85, 0x3d, 0xc1, 0xf4, 0xdc, 0x3c, 0x5a, 0x15, 0xde, 0xbd,
  0x14, 0xea, 0x0c, 0x3c, 0x59, 0x2b, 0xfd, 0xbd, 0x26, 0x70, 0x60, 0xbe,
  0xab, 0xa8, 0x0b, 0xbe, 0xfa, 0x0d, 0x1e, 0xbe, 0xee, 0x4f, 0x47, 0xbd,
  0xd1, 0x3f, 0xd2, 0xbd, 0xc7, 0x86, 0xcf, 0x3d, 0xc0, 0xd8, 0xd2, 0xbe,
  0x07, 0x31, 0xfc, 0x3d, 0x92, 0x8d, 0x97, 0x3e, 0x38, 0xd6, 0x11, 0x3e,
  0xd7, 0x09, 0x7b, 0x3c, 0x04, 0x91, 0xd2, 0x3c, 0x0c, 0x44, 0x66, 0x3e,
  0x71, 0xc7, 0xa3, 0x3d, 0xac, 0x38, 0x9a, 0x3c, 0x9e, 0xea, 0xbb, 0xbd,
  0x17, 0xde, 0x42, 0x3e, 0x81, 0x08, 0x42, 0x3e, 0xdd, 0xde, 0x4e, 0xbc,
  0x88, 0x4d, 0x29, 0x3e, 0x5c, 0xb9, 0x17, 0xbd, 0xb2, 0x37, 0x2c, 0xbe,
  0xd8, 0x44, 0xc1, 0xbc, 0xfc, 0x53, 0x58, 0x3e, 0xa4, 0xa2, 0x48, 0x3e,
  0xcf, 0xac, 0xf5, 0x3d, 0x71, 0x89, 0x25, 0x3e, 0xf8, 0x0e, 0x20, 0x3e,
  0x16, 0xbd, 0x0d, 0x3d, 0x3f, 0x7a, 0x3a, 0xbc, 0x80, 0x4b, 0x63, 0xbd,
  0x36, 0xb8, 0x92, 0x3e, 0xa0, 0x67, 0xee, 0xbc, 0x38, 0x75, 0x06, 0x3e,
  0xe3, 0xe9, 0x26, 0xbe, 0xca, 0xaf, 0xfe, 0x3d, 0xa9, 0xe0, 0x08, 0x3e,
  0x4b, 0x57, 0xd5, 0x3d, 0xe4, 0x1d, 0x35, 0xbe, 0xb4, 0xe9, 0xc4, 0xbd,
  0x94, 0xae, 0xd4, 0x3c, 0x13, 0xdb, 0x29, 0xbe, 0x4c, 0xe7, 0xe4, 0xbd,
  0xed, 0x51, 0x22, 0xbe, 0xe0, 0x5e, 0xfb, 0xbc, 0xba, 0xce, 0x89, 0x3c,
  0xbc, 0x1d, 0x97, 0x3d, 0x5f, 0x03, 0x87, 0x3d, 0xfa, 0x92, 0xf7, 0x3d,
  0x7f, 0x50, 0x37, 0xbe, 0x7b, 0x58, 0x29, 0xbe, 0x75, 0x33, 0xf2, 0x3d,
  0xb2, 0x43, 0xfd, 0xbd, 0x50, 0x3a, 0xde, 0xba, 0x8b, 0x8e, 0x17, 0xbe,
  0xaf, 0x8d, 0xd3, 0x3d, 0x37, 0x4d, 0x14, 0xbd, 0x44, 0x1e, 0x46, 0xbd,
  0x57, 0x5c, 0x00, 0x3d, 0xc6, 0x03, 0x18, 0xbe, 0xea, 0xee, 0x77, 0xbd,
  0xbb, 0x00, 0x0f, 0xbe, 0x79, 0x7d, 0x09, 0xbe, 0x20, 0x2d, 0xf3, 0x3d,
  0x46, 0x8f, 0x73, 0xbe, 0x04, 0x86, 0x57, 0x3d, 0xd8, 0x58, 0x94, 0x3d,
  0x7f, 0xa4, 0x2e, 0xbe, 0x51, 0x5f, 0xa2, 0x3d, 0xd4, 0x64, 0x4f, 0xbc,
  0x66, 0xc4, 0xc3, 0xbe, 0x72, 0xd6, 0x7c, 0xbd, 0xfb, 0x8f, 0xc8, 0x3d,
  0xae, 0x6c, 0x38, 0x3e, 0x4f, 0x5d, 0xbd, 0xbd, 0x41, 0xff, 0x19, 0xbe,
  0x96, 0xc2, 0xea, 0x3e, 0xc3, 0x6b, 0x18, 0x3e, 0xab, 0x1c, 0x95, 0x3d,
  0xfb, 0x7a, 0xab, 0x3c, 0x97, 0x6f, 0xaf, 0x3d, 0xa6, 0x33, 0x91, 0x3d,
  0x26, 0x20, 0x5a, 0x3e, 0x62, 0xf5, 0x39, 0x3c, 0xd8, 0x29, 0x19, 0xbe,
  0x06, 0xcb, 0x2c, 0xbe, 0x58, 0x1d, 0xf3, 0x3d, 0x50, 0x90, 0x8a, 0x3d,
  0x91, 0xea, 0x7b, 0x3e, 0xdb, 0x87, 0xe1, 0xbc, 0x29, 0xac, 0x4a, 0x3e,
  0x5f, 0x21, 0x24, 0xbd, 0x63, 0x71, 0x14, 0x3e, 0x04, 0xd5, 0xa2, 0xbc,
  0xeb, 0x68, 0x2d, 0x3e, 0x2a, 0x95, 0x84, 0x3e, 0xa9, 0x2e, 0x06, 0xbd,
  0xd7, 0xd5, 0x55, 0x3d, 0x0b, 0x4f, 0x7c, 0xbd, 0xed, 0xe2, 0x81, 0xbe,
  0xca, 0x0b, 0xa3, 0x3d, 0xa6, 0xee, 0x20, 0x3d, 0xe2, 0xc7, 0x05, 0xbe,
  0xc9, 0x93, 0x24, 0xbe, 0x45, 0x17, 0x9e, 0x3e, 0xd4, 0xaa, 0xa3, 0x3d,
  0xed, 0x39, 0x93, 0xbd, 0x32, 0x2c, 0xcc, 0x3d, 0xde, 0x7c, 0xaa, 0x3e,
  0x9c, 0x43, 0x09, 0x3e, 0xf9, 0xd0, 0x8e, 0x3d, 0x48, 0x80, 0x21, 0xbd,
  0xbe, 0x3f, 0x5f, 0x3e, 0x15, 0x0c, 0xa2, 0x3e, 0x76, 0x30, 0x88, 0xbd,
  0x44, 0xa7, 0x17, 0x3e, 0xbf, 0xc3, 0x8e, 0x3d, 0x99, 0xd6, 0xee, 0xbd,
  0xc3, 0x29, 0x16, 0xbe, 0x3d, 0xd0, 0x24, 0x3e, 0xa6, 0x6b, 0x74, 0x3e,
  0x39, 0x30, 0x85, 0xbb, 0x4d, 0xf8, 0x16, 0x3e, 0xeb, 0x1e, 0xe1, 0x3d,
  0x88, 0xa1, 0x28, 0x3e, 0x55, 0x54, 0x3f, 0xbc, 0x77, 0xff, 0xcd, 0xbd,
  0xba, 0xb0, 0x63, 0x3e, 0x66, 0x2a, 0xcc, 0xbb, 0x88, 0xb7, 0x1e, 0x3e,
  0x0a, 0x50, 0xe4, 0xbd, 0xa0, 0xde, 0x63, 0x3e, 0x12, 0x60, 0x41, 0x3d,
  0x19, 0x16, 0xae, 0x3d, 0x08, 0x75, 0xec, 0x3e, 0x35, 0xbf, 0xfb, 0x3d,
  0x3b, 0xa5, 0x5b, 0x3e, 0xe1, 0x21, 0x54, 0x3d, 0x2e, 0xa0, 0x06, 0x3e,
  0xe0, 0xcc, 0x9e, 0xbd, 0x12, 0x79, 0xc1, 0xbe, 0x16, 0x06, 0x3e, 0xbd,
  0x4a, 0x18, 0x3d, 0xbd, 0x47, 0x42, 0xe1, 0x3d, 0xc1, 0xae, 0x24, 0xbc,
  0x23, 0x7b, 0x2e, 0xbe, 0xfd, 0xfc, 0x5e, 0xbc, 0x19, 0xd3, 0x75, 0x3e,
  0xcb, 0xce, 0xe9, 0xbd, 0x93, 0xb5, 0xe0, 0x3e, 0x34, 0xec, 0x00, 0x3e,
  0xb0, 0x23, 0x53, 0x3e, 0x22, 0xcd, 0x6d, 0x3e, 0xb1, 0x4c, 0xcd, 0x3d,
  0xb6, 0xae, 0x1b, 0x3e, 0xa9, 0x77, 0x3c, 0x3e, 0xfa, 0x79, 0xee, 0x3c,
  0x6d, 0xb2, 0x00, 0xbe, 0x2b, 0x64, 0x3d, 0x3e, 0xac, 0x0e, 0xca, 0xbc,
  0x64, 0xa3, 0x34, 0x3d, 0x68, 0xe8, 0x5d, 0xbd, 0x11, 0x7b, 0x98, 0xbd,
  0x76, 0x07, 0x2a, 0x3c, 0xc5, 0x30, 0x02, 0xbc, 0x76, 0x7f, 0x88, 0x3d,
  0x8d, 0x18, 0x15, 0xbe, 0xb7, 0x66, 0x62, 0x3b, 0x3d, 0xd4, 0x28, 0xbe,
  0x72, 0x4d, 0xb2, 0xbd, 0x76, 0xf1, 0x94, 0x3d, 0xc8, 0x7f, 0x9d, 0x3d,
  0x7b, 0xb0, 0x26, 0x3c, 0x45, 0x2f, 0x0e, 0xbe, 0xa2, 0x85, 0x0e, 0x3e,
  0xbf, 0x4f, 0x14, 0x3e, 0x08, 0x28, 0xc3, 0x3d, 0x99, 0xdb, 0x81, 0x3d,
  0x1b, 0x7b, 0x1a, 0xbe, 0xaa, 0x69, 0xe4, 0xbb, 0x65, 0x38, 0x33, 0x3e,
  0x0c, 0x61, 0xe2, 0x3d, 0x86, 0x3d, 0xb8, 0xbd, 0xc5, 0x6e, 0x3e, 0x3a,
  0x51, 0xcb, 0x13, 0xbd, 0xe5, 0x0d, 0xa5, 0x3d, 0xd7, 0x81, 0x03, 0xbd,
  0xe5, 0xfe, 0x04, 0xbe, 0xcf, 0x04, 0x76, 0x3d, 0x4f, 0xb5, 0x2f, 0xbe,
  0x32, 0xd8, 0x04, 0xbe, 0x9a, 0xe7, 0x14, 0xbe, 0xa7, 0xb6, 0x80, 0xbd,
  0xaf, 0xe7, 0x14, 0x3e, 0x1c, 0x57, 0xe4, 0x3d, 0x76, 0x80, 0xb6, 0x3d,
  0x01, 0x4a, 0x1e, 0x3d, 0x40, 0x79, 0x3c, 0x3d, 0xf4, 0x7e, 0x39, 0xbe,
  0x8c, 0x7b, 0x5e, 0x3e, 0x8f, 0x21, 0xf9, 0x3d, 0x20, 0xaa, 0x4c, 0x3e,
  0x32, 0xb5, 0x6c, 0xbd, 0xa8, 0x69, 0x82, 0x3d, 0x61, 0x10, 0x86, 0x3e,
  0xda, 0x9d, 0xa8, 0xbd, 0x63, 0xca, 0x24, 0xbe, 0x34, 0x37, 0x54, 0x3e,
  0xa1, 0x1c, 0x3c, 0x3e, 0x46, 0x9c, 0x22, 0xbd, 0x8b, 0x2b, 0x6b, 0xbd,
  0xb6, 0x92, 0xd6, 0x3d, 0xa3, 0x56, 0xf5, 0xbd, 0x6a, 0x5f, 0x8e, 0x3e,
  0x8a, 0xa1, 0x22, 0x3e, 0x7c, 0x47, 0x17, 0x3e, 0xc2, 0xcb, 0x19, 0x3d,
  0x3e, 0xda, 0xff, 0xbd, 0x96, 0x55, 0x22, 0x3e, 0x28, 0xeb, 0x92, 0xbb,
  0xde, 0x9d, 0xf2, 0xbd, 0x56, 0x16, 0xca, 0xbc, 0xe6, 0xc0, 0x44, 0xbd,
  0x18, 0x93, 0x55, 0x3e, 0x61, 0x0d, 0xf2, 0xbd, 0xd1, 0x50, 0xe2, 0x3d,
  0xce, 0x47, 0x20, 0xbe, 0xc0, 0x8b, 0x8b, 0xbe, 0x20, 0x7a, 0xf7, 0xbd,
  0x27, 0x3c, 0x3f, 0x3c, 0x31, 0x67, 0x59, 0xbe, 0xcc, 0x8c, 0xd8, 0x3d,
  0xe6, 0x44, 0x61, 0x3e, 0x20, 0x98, 0xe3, 0xbc, 0x49, 0x75, 0xee, 0x3c,
  0xe1, 0x4a, 0x1e, 0xbe, 0x3a, 0x63, 0xd6, 0x3e, 0xd2, 0x4a, 0x5d, 0x3d,
  0x33, 0x5b, 0x2b, 0xbe, 0xf2, 0x2e, 0xaa, 0x3c, 0xab, 0x1d, 0xaf, 0xbb,
  0xcf, 0x45, 0xa2, 0x3e, 0x59, 0xf4, 0x2b, 0x3e, 0xbc, 0x4b, 0x87, 0x3d,
  0x7f, 0x56, 0x18, 0xbe, 0xc4, 0x55, 0xe1, 0xbc, 0x85, 0x1b, 0x4b, 0x3d,
  0x35, 0x8c, 0x21, 0x3e, 0xc2, 0x74, 0xcf, 0xbc, 0x0a, 0x9d, 0x71, 0x3e,
  0xd7, 0x7f, 0xb2, 0x3e, 0xad, 0x6c, 0x80, 0xbd, 0xeb, 0xf5, 0x43, 0x3e,
  0x74, 0x79, 0x02, 0x3e, 0xd5, 0xfc, 0x40, 0xbd, 0xb2, 0x88, 0x06, 0x3e,
  0x89, 0x4d, 0x5b, 0x3b, 0xa7, 0x97, 0xee, 0xbd, 0x70, 0xb4, 0x88, 0x3d,
  0xee, 0x1d, 0x19, 0xbe, 0xc8, 0x13, 0xf6, 0xbd, 0xc9, 0x7e, 0x22, 0xbe,
  0xea, 0xdf, 0xb8, 0x3d, 0xd2, 0x9c, 0xef, 0x3d, 0x49, 0x64, 0xd9, 0xbd,
  0x61, 0xd1, 0x2b, 0xbe, 0xfa, 0xd7, 0x34, 0x3c, 0xe5, 0x11, 0xd3, 0x3d,
  0x3e, 0x3f, 0xb7, 0xbd, 0x49, 0xa3, 0xa2, 0xbc, 0xa0, 0xc7, 0x08, 0xbe,
  0xa3, 0x99, 0x05, 0xbd, 0x3b, 0x55, 0x82, 0x3d, 0x28, 0xa0, 0xef, 0x3d,
  0x2c, 0xbc, 0x39, 0xbe, 0x4d, 0xf2, 0x94, 0x3d, 0x4f, 0x68, 0x37, 0xbe,
  0x7c, 0x5c, 0x00, 0x3e, 0x90, 0xdb, 0x70, 0x3d, 0xaf, 0xf6, 0xf0, 0x3d,
  0xab, 0xca, 0x6e, 0x3d, 0xbe, 0x4b, 0x96, 0x3d, 0x07, 0x2e, 0xec, 0xbb,
  0xb6, 0xf1, 0x9d, 0x3d, 0xfd, 0xb0, 0x3b, 0xbe, 0x60, 0x6b, 0x91, 0x3d,
  0x46, 0xbb, 0x19, 0x3e, 0x2f, 0xab, 0x95, 0x3d, 0x92, 0x6b, 0x3f, 0xbe,
  0xe1, 0x9d, 0xe0, 0xbd, 0x39, 0x24, 0x10, 0x3e, 0x8a, 0xea, 0xf8, 0x3d,
  0x8c, 0xa2, 0x2d, 0xbe, 0xc1, 0xc5, 0x43, 0xbd, 0xec, 0x12, 0x2a, 0x3c,
  0x66, 0x18, 0x05, 0xbe, 0x92, 0x5b, 0x0a, 0xbe, 0x76, 0x4e, 0x2f, 0x3d,
  0x97, 0x6d, 0x34, 0xbd, 0x2d, 0xe3, 0x2a, 0xbe, 0x1a, 0x9b, 0x18, 0x3d,
  0x20, 0x5d, 0x12, 0x3e, 0x1f, 0x51, 0x4c, 0xbd, 0x6c, 0xbe, 0x0c, 0x3e,
  0x7d, 0x8b, 0x0a, 0xbe, 0x71, 0xba, 0x8e, 0xbc, 0x22, 0x24, 0x2d, 0xbe,
  0x76, 0xb8, 0x33, 0xbe, 0x8c, 0xeb, 0x34, 0xbe, 0x0c, 0xa3, 0xfe, 0xbd,
  0xf9, 0x06, 0xc5, 0x3c, 0x9d, 0x21, 0x2f, 0xbe, 0xd1, 0x2d, 0xfa, 0xbd,
  0x04, 0x16, 0x17, 0xbd, 0x26, 0xc8, 0xc0, 0xbd, 0xe1, 0xa1, 0xb5, 0xbc,
  0x43, 0xdf, 0x94, 0xbd, 0xd3, 0x81, 0x9a, 0x3d, 0x94, 0x6b, 0x1b, 0x3d,
  0x00, 0x68, 0x13, 0xbe, 0x35, 0xad, 0x59, 0x3d, 0xdd, 0x21, 0x3b, 0xbc,
  0x76, 0x3a, 0x18, 0xbe, 0xbf, 0xd4, 0x3d, 0x3e, 0x12, 0x70, 0xd9, 0x3d,
  0x29, 0x10, 0xaf, 0x3d, 0x6c, 0xf8, 0x5b, 0x3e, 0x71, 0x0c, 0xb2, 0xbc,
  0x1c, 0x73, 0x31, 0x3e, 0x49, 0x09, 0xd5, 0x3d, 0xdb, 0x6b, 0x66, 0xbd,
  0x21, 0x12, 0x72, 0x3c, 0xce, 0xbb, 0x61, 0xbe, 0x80, 0xb9, 0x6f, 0x3e,
  0x7d, 0x53, 0x09, 0x3d, 0xdf, 0xd7, 0x66, 0x3c, 0x0e, 0x49, 0x0a, 0xbd,
  0xe1, 0xc4, 0xe9, 0xbd, 0x81, 0xb0, 0x33, 0x3a, 0xdd, 0x05, 0x4a, 0x3d,
  0x94, 0x1a, 0xdf, 0xbd, 0x6f, 0x8f, 0x66, 0x3e, 0x6b, 0xa8, 0x90, 0xbc,
  0x1a, 0x15, 0x55, 0x3e, 0x65, 0x90, 0xe3, 0x3d, 0x94, 0x97, 0x01, 0x3e,
  0x16, 0x16, 0x29, 0x3e, 0xa0, 0x2d, 0x1e, 0xbc, 0x89, 0x7b, 0xa9, 0x3b,
  0x4b, 0x70, 0x13, 0x3e, 0x25, 0x8c, 0x4a, 0x3e, 0x31, 0x6b, 0x18, 0x3e,
  0x81, 0xfc, 0xb8, 0x3e, 0x88, 0x94, 0x2a, 0xbe, 0x2c, 0xb2, 0x29, 0xbe,
  0x9e, 0xc0, 0xd7, 0x3d, 0x17, 0x52, 0xe3, 0x3d, 0xc9, 0xe3, 0x85, 0x3d,
  0xe7, 0x0e, 0xc1, 0x3e, 0xc5, 0x26, 0x87, 0x3d, 0xf1, 0x7b, 0xe1, 0xbd,
  0x5c, 0x03, 0x5d, 0xbd, 0xdc, 0xc7, 0xf8, 0x3d, 0xfa, 0x86, 0xff, 0xbd,
  0x82, 0x3c, 0xa5, 0xbb, 0xc7, 0x32, 0x95, 0xbd, 0x83, 0x7f, 0x42, 0x3d,
  0x1b, 0x7e, 0x08, 0x3e, 0xcb, 0x53, 0xd8, 0xbd, 0x28, 0xc4, 0xae, 0x3c,
  0x12, 0x57, 0xb5, 0x3d, 0x5d, 0x40, 0x5d, 0x3c, 0xb8, 0x29, 0x8b, 0xbd,
  0x85, 0x84, 0xab, 0x3e, 0xfc, 0xdb, 0xb4, 0xbd, 0x1c, 0x3d, 0xff, 0xbd,
  0x9b, 0x8b, 0x37, 0xbe, 0x1e, 0x5a, 0xf5, 0xbd, 0xad, 0x44, 0x18, 0xbd,
  0xd4, 0xb9, 0x0c, 0xbd, 0x8a, 0xbe, 0x23, 0x3e, 0x03, 0x39, 0xab, 0xbd,
  0xbf, 0xe8, 0x29, 0xbd, 0x57, 0x70, 0xe9, 0x3d, 0xf2, 0x3f, 0x09, 0x3e,
  0xed, 0xa2, 0x31, 0x3e, 0x7d, 0xd4, 0xc9, 0x3d, 0x8e, 0x32, 0xdd, 0x3e,
  0x6b, 0xb4, 0x0f, 0x3e, 0x7d, 0xe4, 0x3d, 0x3e, 0x4c, 0x33, 0xfc, 0x3e,
  0xf4, 0xef, 0x6e, 0x3d, 0x4d, 0xcc, 0x4c, 0x3e, 0x3a, 0x6a, 0x3d, 0x3e,
  0x86, 0x90, 0xdf, 0x3d, 0x4a, 0x96, 0x9a, 0xbd, 0xc3, 0x99, 0xd3, 0xbe,
  0x09, 0xc7, 0xd2, 0x3b, 0x03, 0xd9, 0x87, 0xbd, 0xbd, 0x48, 0x6c, 0x3e,
  0x4a, 0x1b, 0x2b, 0xbb, 0x7a, 0x0e, 0x82, 0x3d, 0xa1, 0x9e, 0x6e, 0x3e,
  0x54, 0xce, 0x27, 0x3e, 0x39, 0x4c, 0x60, 0xbc, 0xf1, 0x8d, 0xd5, 0x3d,
  0x94, 0x03, 0x9c, 0x3d, 0xd7, 0xfb, 0x23, 0xbd, 0x3a, 0x90, 0xa5, 0xbc,
  0x96, 0xc1, 0x92, 0xbd, 0xf2, 0xdd, 0x58, 0x3e, 0xed, 0x33, 0x25, 0xbd,
  0x50, 0x8b, 0x66, 0x3e, 0xdc, 0x12, 0x91, 0x3d, 0x8f, 0xaa, 0xa3, 0xbd,
  0x44, 0xb5, 0x16, 0xbd, 0x8f, 0x18, 0xee, 0x3d, 0xcb, 0xe4, 0x13, 0x3d,
  0x26, 0xf3, 0xad, 0xbd, 0xfe, 0x25, 0xcf, 0x3c, 0x6a, 0xd1, 0xd8, 0xbd,
  0xf3, 0x4e, 0x21, 0xbe, 0x45, 0xad, 0x2d, 0x3e, 0x41, 0x40, 0xf2, 0xbd,
  0x09, 0xb2, 0xb9, 0x3d, 0xde, 0x48, 0x4e, 0xbe, 0xce, 0xef, 0x87, 0x3d,
  0x3a, 0xd4, 0x23, 0x3e, 0xba, 0x5b, 0xbe, 0xbd, 0xf1, 0x16, 0x7f, 0x3d,
  0xf4, 0xa7, 0x04, 0xbe, 0xc6, 0x59, 0xc0, 0x3d, 0x99, 0xef, 0xa3, 0x3c,
  0xee, 0x78, 0x14, 0xbe, 0xdb, 0x5e, 0xc0, 0xbd, 0x02, 0x65, 0x99, 0xbd,
  0xa4, 0x6f, 0x41, 0xbe, 0xbf, 0x23, 0x9e, 0x3d, 0xfb, 0x3d, 0x3b, 0xbe,
  0xd3, 0x9f, 0xdb, 0x3d, 0xf1, 0x0c, 0x02, 0xbd, 0xfa, 0xb0, 0x94, 0x3c,
  0x94, 0xe2, 0xf8, 0xbc, 0x2e, 0x83, 0x1a, 0xbe, 0xd6, 0xa1, 0xa1, 0x3d,
  0x2c, 0x59, 0xa9, 0x3d, 0x1b, 0x19, 0x6c, 0xbc, 0x11, 0x2f, 0x5a, 0xbd,
  0xc8, 0xe1, 0x82, 0x3e, 0xff, 0x6c, 0x99, 0x3c, 0xf7, 0xd0, 0xa5, 0xbd,
  0x8f, 0x16, 0x2d, 0x3e, 0x67, 0x55, 0x4d, 0x3e, 0xc0, 0x48, 0x9c, 0x3c,
  0xf6, 0x34, 0x8c, 0xbc, 0x4f, 0x57, 0x21, 0x3c, 0x0c, 0x75, 0xa6, 0xbe,
  0x24, 0xe9, 0x17, 0x3e, 0xf4, 0x5b, 0x02, 0xbe, 0x39, 0x78, 0x88, 0xbd,
  0x5e, 0x82, 0x05, 0x3e, 0xda, 0x87, 0x23, 0xbe, 0x3a, 0xa1, 0x40, 0x3e,
  0xb0, 0x7e, 0x0d, 0x3d, 0xe9, 0x32, 0x99, 0xbd, 0xa2, 0xbb, 0x50, 0xbd,
  0x80, 0x30, 0x3c, 0x3d, 0x01, 0xc4, 0xe2, 0xbd, 0xb8, 0x60, 0xb9, 0x3d,
  0x7d, 0x6c, 0xfa, 0xbd, 0xce, 0xd0, 0x5d, 0x3e, 0x01, 0x5b, 0x36, 0xbc,
  0x80, 0x2b, 0xd8, 0x3c, 0xb1, 0xf1, 0x77, 0x3e, 0x95, 0xb1, 0xa2, 0xbd,
  0x2b, 0xda, 0x07, 0x3d, 0x3e, 0x2f, 0x37, 0x3e, 0xa8, 0x53, 0x1f, 0x3d,
  0x00, 0xbd, 0x42, 0x3d, 0xde, 0xb7, 0x56, 0xbd, 0xe3, 0x42, 0x37, 0xbe,
  0x4d, 0xd6, 0xb4, 0x3d, 0xb0, 0x46, 0xb3, 0xbd, 0x38, 0xe1, 0x32, 0xbe,
  0x59, 0xa1, 0x16, 0x3e, 0xd6, 0x46, 0xbc, 0x3d, 0xdb, 0xf1, 0xd8, 0xbe,
  0x5b, 0x10, 0x00, 0xbe, 0x65, 0xed, 0x0e, 0x3e, 0x4f, 0x33, 0x0b, 0x3e,
  0x18, 0x51, 0x1f, 0x3e, 0x18, 0x9f, 0x5c, 0xbc, 0xb1, 0xb9, 0x95, 0x3e,
  0x25, 0xa7, 0x11, 0x3e, 0xf5, 0x36, 0x74, 0xbe, 0x68, 0x46, 0xc0, 0xbd,
  0xf4, 0x92, 0x6f, 0x3e, 0x92, 0x0e, 0x81, 0x3e, 0x50, 0x58, 0x11, 0x3d,
  0xa6, 0x15, 0x46, 0x3c, 0x1b, 0x7b, 0xa3, 0xbd, 0x01, 0xa5, 0x1c, 0x3d,
  0xcc, 0x6d, 0x20, 0x3e, 0x80, 0xe4, 0x5f, 0x3e, 0x31, 0x5f, 0x0e, 0x3d,
  0x66, 0xf4, 0xa2, 0x3c, 0x9d, 0xe5, 0x60, 0x3e, 0x22, 0xa7, 0x95, 0xba,
  0x08, 0x26, 0x3b, 0x3c, 0x08, 0x38, 0xd3, 0xbb, 0xd1, 0x8f, 0x0a, 0x3e,
  0x2f, 0xcf, 0x69, 0x3e, 0xe0, 0xe0, 0xc9, 0xbd, 0x98, 0x02, 0xc4, 0x3b,
  0xb8, 0xfb, 0xf1, 0xbc, 0x24, 0xcc, 0x05, 0xbe, 0xef, 0xd3, 0x24, 0x3e,
  0x43, 0x65, 0x0b, 0x3d, 0xa3, 0x15, 0x8f, 0xbe, 0xd9, 0x62, 0xbd, 0x3c,
  0xcb, 0xd1, 0x16, 0xbc, 0x78, 0x47, 0x9c, 0x3d, 0x03, 0xe4, 0xd8, 0x3b,
  0xa6, 0x45, 0xb9, 0xbc, 0x3e, 0x7b, 0x57, 0x3e, 0x6c, 0x94, 0x12, 0x3e,
  0xa6, 0xe2, 0x62, 0xbd, 0xb3, 0xfd, 0x72, 0x3e, 0x5b, 0x1e, 0x6e, 0x3e,
  0x74, 0x9e, 0x80, 0x3e, 0xf8, 0x11, 0x34, 0xbd, 0xd5, 0xb7, 0x16, 0x3e,
  0x03, 0x15, 0xb0, 0xbd, 0xdc, 0xe0, 0x96, 0x3d, 0x02, 0x31, 0x77, 0xbd,
  0x25, 0xc0, 0xdd, 0x3c, 0xd9, 0x47, 0xaa, 0x3d, 0x9b, 0xb5, 0x57, 0x3e,
  0xc3, 0x33, 0xe7, 0x3c, 0x59, 0x63, 0x3b, 0x3e, 0x7f, 0xb3, 0x05, 0x3e,
  0x9f, 0xec, 0x06, 0x3d, 0xd7, 0xb0, 0x64, 0x3e, 0x62, 0xe3, 0xc6, 0x3d,
  0x0b, 0x2d, 0xdb, 0xbd, 0x80, 0x65, 0x09, 0xbe, 0xdb, 0x11, 0xb6, 0x3d,
  0x8a, 0x2b, 0x70, 0x3c, 0xbb, 0xaf, 0x32, 0xbe, 0xe1, 0xbe, 0xab, 0x3d,
  0x97, 0xb7, 0x19, 0x3e, 0x38, 0xaa, 0xd2, 0x3d, 0x9f, 0xa2, 0xdf, 0x3d,
  0xe4, 0x3f, 0xc0, 0x3d, 0xb4, 0xf7, 0xd8, 0xbd, 0x6a, 0x57, 0x00, 0x3d,
  0xed, 0x9b, 0xf4, 0x3c, 0x2d, 0x32, 0x2a, 0xbd, 0x94, 0x1f, 0x9f, 0x3d,
  0xdc, 0xc4, 0x4e, 0x3c, 0x5f, 0x4c, 0x3b, 0xbe, 0x67, 0x56, 0x79, 0xbc,
  0xc8, 0x27, 0xdb, 0x3c, 0xc1, 0xda, 0x07, 0xbe, 0xda, 0xc3, 0x29, 0xbb,
  0x96, 0x07, 0xd3, 0xbd, 0x22, 0x8f, 0x3b, 0xbe, 0xc0, 0xcc, 0xf5, 0x3d,
  0x21, 0x78, 0xa5, 0xbd, 0x2e, 0x0c, 0x1b, 0xbe, 0x9b, 0x4d, 0x41, 0xbe,
  0x6b, 0xa8, 0xeb, 0xbd, 0x01, 0xd2, 0xe3, 0xbd, 0x23, 0x6a, 0xd4, 0xbd,
  0x87, 0x86, 0xdc, 0xbd, 0x54, 0x13, 0x9d, 0x3b, 0x1a, 0xe3, 0xb3, 0xbd,
  0xa4, 0xe9, 0x85, 0x3d, 0x0e, 0xeb, 0x01, 0xbd, 0x7a, 0x18, 0x1e, 0xbe,
  0x69, 0xd0, 0x02, 0xbe, 0xd5, 0x26, 0x17, 0xbe, 0x8e, 0x6e, 0x00, 0xbe,
  0x94, 0xbd, 0xa3, 0xbd, 0x5c, 0xf2, 0x18, 0x3c, 0xb7, 0x67, 0xc3, 0xbd,
  0xca, 0xce, 0x86, 0xbd, 0x65, 0x41, 0x16, 0x3d, 0xba, 0xd9, 0xeb, 0x3b,
  0x4b, 0x0c, 0x4d, 0xbd, 0xa8, 0x8e, 0xd3, 0x3d, 0xaf, 0x3b, 0xb1, 0xbb,
  0x6a, 0xe5, 0xfa, 0xbd, 0x6f, 0x5d, 0x1a, 0x3d, 0x19, 0xc3, 0x97, 0xbc,
  0xdb, 0x1a, 0xe8, 0x3d, 0xf9, 0x07, 0xf5, 0xbc, 0xc7, 0xb9, 0x22, 0x3e,
  0x20, 0x11, 0xf0, 0x3d, 0xde, 0x44, 0x2f, 0xbe, 0x38, 0xc3, 0xe5, 0x3d,
  0xbd, 0xeb, 0xb8, 0x3d, 0x77, 0xa7, 0x7a, 0x3b, 0x66, 0xb4, 0x07, 0xbe,
  0xee, 0x1e, 0xdc, 0x3c, 0x03, 0xd4, 0x01, 0xbe, 0xba, 0x85, 0x9f, 0x3d,
  0x9f, 0xfd, 0x86, 0xbd, 0xb7, 0xe9, 0xe1, 0x3d, 0x8e, 0x81, 0x1e, 0x3e,
  0x54, 0xa0, 0xba, 0xbc, 0x85, 0xe1, 0x23, 0x3b, 0x32, 0x61, 0x29, 0x3e,
  0x96, 0x5b, 0x92, 0xbd, 0x69, 0xdc, 0x92, 0x3e, 0x3a, 0x3e, 0xf5, 0x3d,
  0x20, 0x18, 0xb1, 0xbd, 0x50, 0x20, 0x30, 0x3d, 0x05, 0x57, 0xc6, 0x3c,
  0x94, 0xb5, 0x59, 0x3d, 0xf3, 0x30, 0xc2, 0xbe, 0xeb, 0xf8, 0x54, 0x3e,
  0x75, 0x38, 0x4e, 0xbe, 0xfd, 0xc1, 0x4b, 0x3e, 0xc0, 0xcf, 0x09, 0x3e,
  0xb8, 0x34, 0x2c, 0xbe, 0x80, 0x9d, 0x19, 0x3e, 0xef, 0x4b, 0x6a, 0x3c,
  0xe6, 0xc7, 0x06, 0x3e, 0x66, 0xa8, 0x82, 0x3e, 0x80, 0x60, 0x77, 0xbd,
  0x29, 0x0b, 0xeb, 0x3d, 0x90, 0x8a, 0xbb, 0x3d, 0x42, 0x34, 0x1c, 0x3d,
  0xdc, 0x87, 0x4a, 0xbc, 0xef, 0xf7, 0x28, 0x3e, 0xa6, 0x98, 0xd3, 0x3d,
  0xc1, 0x92, 0x35, 0x3c, 0xb7, 0xd9, 0x60, 0x3d, 0x7d, 0xfb, 0xc1, 0xbc,
  0xf3, 0x7c, 0x9e, 0x3d, 0x2c, 0x3c, 0xa4, 0x3c, 0x59, 0x93, 0x07, 0xbe,
  0xe7, 0x39, 0xcb, 0xbd, 0xa9, 0xec, 0x04, 0x3e, 0x68, 0x9a, 0x68, 0x3e,
  0xfc, 0xae, 0x06, 0xbe, 0x0b, 0xf8, 0x02, 0x3c, 0x67, 0x37, 0xaf, 0x3c,
  0x48, 0xb4, 0xd9, 0xbd, 0x44, 0xd7, 0x74, 0x3d, 0xd1, 0xb5, 0xdc, 0xbd,
  0x93, 0x1f, 0xaf, 0x3e, 0xc4, 0x2d, 0xba, 0x3d, 0xb7, 0x41, 0x2b, 0xbe,
  0xaf, 0x85, 0xfa, 0x3c, 0xf7, 0x74, 0x02, 0x3e, 0xb2, 0xe0, 0xa3, 0x3e,
  0x56, 0xd1, 0x44, 0xbd, 0xeb, 0xce, 0x7e, 0x3d, 0x21, 0xdb, 0x1d, 0x3d,
  0xe4, 0x8c, 0xf8, 0x3d, 0xe4, 0xce, 0xf4, 0x3d, 0x70, 0x4a, 0xa3, 0xbc,
  0xde, 0x79, 0x54, 0x3e, 0xc7, 0xa3, 0x04, 0xbe, 0xb0, 0x50, 0x1c, 0x3e,
  0xae, 0x5a, 0x5c, 0x3e, 0xba, 0x34, 0xb7, 0xbd, 0x15, 0x1d, 0x24, 0xbd,
  0x74, 0x22, 0x70, 0x3e, 0x76, 0xfe, 0x94, 0x3c, 0xad, 0x0f, 0x21, 0x3e,
  0xe8, 0x63, 0x27, 0x3c, 0xd9, 0x34, 0x08, 0xbb, 0x1e, 0x05, 0xd4, 0x3d,
  0xf4, 0x8b, 0xbb, 0xbd, 0x20, 0x1e, 0xf3, 0xbc, 0xef, 0x50, 0x0c, 0x3d,
  0x4b, 0x5e, 0x8a, 0x3c, 0x2a, 0x8e, 0x47, 0xbc, 0x57, 0x77, 0x21, 0xbd,
  0x33, 0x00, 0xdb, 0xbb, 0x13, 0x23, 0x13, 0x3e, 0x7a, 0x9f, 0x86, 0xbd,
  0xf2, 0x38, 0x29, 0xbe, 0xab, 0x5b, 0x8d, 0x3d, 0xc3, 0x2c, 0x2b, 0xbe,
  0x32, 0xdd, 0x6f, 0x3d, 0xb9, 0xe5, 0x2c, 0xbe, 0x10, 0xde, 0xb5, 0x3d,
  0x2a, 0x14, 0xa6, 0xbd, 0xf3, 0xdc, 0x4e, 0x3d, 0x8c, 0x39, 0x12, 0x3d,
  0x85, 0x88, 0xaa, 0xbd, 0x01, 0x09, 0xe1, 0xbc, 0x75, 0x2e, 0x33, 0xbc,
  0x7f, 0xc1, 0x3b, 0x3d, 0xe1, 0x7d, 0xd0, 0xbd, 0x16, 0x14, 0xf6, 0xbd,
  0xe1, 0xf6, 0x3b, 0xbd, 0xd9, 0x06, 0xfd, 0x3d, 0xe1, 0x0f, 0x12, 0xbe,
  0xdd, 0x53, 0x1b, 0x3d, 0xf2, 0xfe, 0xff, 0xff, 0x04, 0x00, 0x00, 0x00,
  0x00, 0x01, 0x00, 0x00, 0xdf, 0x9c, 0x87, 0x3d, 0x15, 0x64, 0xc1, 0xbb,
  0x14, 0xcf, 0x60, 0x3e, 0xf2, 0x53, 0x7d, 0x3e, 0xb3, 0xa3, 0x26, 0x3d,
  0x40, 0x50, 0x86, 0xbd, 0x8c, 0x84, 0x16, 0x3d, 0x4e, 0xb4, 0xcf, 0x3d,
  0x00, 0x76, 0x82, 0xbd, 0xd8, 0xe7, 0x28, 0xbd, 0x57, 0x02, 0x5c, 0x3e,
  0x00, 0x07, 0x16, 0x3c, 0x8f, 0xce, 0x48, 0x3e, 0x66, 0xa2, 0x2d, 0x3e,
  0x75, 0x79, 0x6b, 0x3d, 0x14, 0x47, 0xa6, 0xbd, 0x48, 0x3f, 0x4e, 0x3e,
  0xc8, 0x3a, 0x8e, 0x3e, 0x60, 0x57, 0x1b, 0xbe, 0xaa, 0xe9, 0x6c, 0xbd,
  0x67, 0xd6, 0xa6, 0x3d, 0x08, 0x24, 0x28, 0xbe, 0x4c, 0x60, 0xc1, 0x3c,
  0xb2, 0x9d, 0x11, 0xbe, 0xb3, 0x39, 0xdb, 0xbe, 0x92, 0xea, 0x19, 0x3e,
  0xad, 0xe4, 0x1e, 0x3e, 0x55, 0x17, 0xf4, 0xbb, 0x96, 0xe0, 0x80, 0xbd,
  0xe4, 0xa6, 0x21, 0x3e, 0x6f, 0x15, 0x39, 0x3e, 0x18, 0xeb, 0xc1, 0x3d,
  0xbe, 0x2d, 0xe4, 0x3d, 0x38, 0x5a, 0x18, 0xbd, 0x3c, 0x82, 0x80, 0x3c,
  0x7b, 0x93, 0xac, 0xbe, 0x19, 0x6c, 0x8c, 0x3e, 0x2e, 0xe3, 0xcc, 0xbd,
  0xd7, 0xba, 0x21, 0xbe, 0x3e, 0xf0, 0x5b, 0x3e, 0xc4, 0x50, 0xe3, 0xbb,
  0x31, 0xe8, 0xed, 0x3d, 0x01, 0xfe, 0x5d, 0xbd, 0x15, 0xb6, 0xda, 0xbd,
  0xf0, 0x84, 0xad, 0xbc, 0xfe, 0x73, 0x1f, 0xbd, 0xd6, 0x08, 0x85, 0x3e,
  0x3a, 0x2e, 0x1f, 0xbe, 0x6b, 0xb1, 0xcb, 0x3d, 0x4c, 0xce, 0x04, 0xbd,
  0x40, 0x85, 0x1e, 0xbc, 0x14, 0x37, 0xd9, 0xbc, 0x9d, 0xa8, 0x5c, 0x3e,
  0xde, 0x0a, 0x35, 0x3e, 0x7a, 0x29, 0x4d, 0x3e, 0xc7, 0x62, 0x13, 0xbd,
  0x6b, 0xc4, 0xc9, 0xbe, 0xdd, 0x59, 0x33, 0x3c, 0x89, 0x5c, 0x3a, 0x3d,
  0x27, 0xe8, 0xbb, 0xbd, 0xd7, 0x2c, 0xc9, 0x3d, 0x8d, 0x9c, 0x80, 0x3e,
  0x87, 0x85, 0x1d, 0x3d, 0x7a, 0x71, 0x31, 0x3e, 0x00, 0x00, 0x06, 0x00,
  0x08, 0x00, 0x04, 0x00, 0x06, 0x00, 0x00, 0x00, 0x04, 0x00, 0x00, 0x00,
  0x08, 0x00, 0x00, 0x00, 0x08, 0x2b, 0xd0, 0xbd, 0x93, 0x28, 0x23, 0x3e,
  0x1c, 0xfa, 0xff, 0xff, 0x20, 0xfa, 0xff, 0xff, 0x0f, 0x00, 0x00, 0x00,
  0x4d, 0x4c, 0x49, 0x52, 0x20, 0x43, 0x6f, 0x6e, 0x76, 0x65, 0x72, 0x74,
  0x65, 0x64, 0x2e, 0x00, 0x01, 0x00, 0x00, 0x00, 0x14, 0x00, 0x00, 0x00,
  0x00, 0x00, 0x0e, 0x00, 0x18, 0x00, 0x14, 0x00, 0x10, 0x00, 0x0c, 0x00,
  0x08, 0x00, 0x04, 0x00, 0x0e, 0x00, 0x00, 0x00, 0x14, 0x00, 0x00, 0x00,
  0x1c, 0x00, 0x00, 0x00, 0x68, 0x01, 0x00, 0x00, 0x6c, 0x01, 0x00, 0x00,
  0x70, 0x01, 0x00, 0x00, 0x04, 0x00, 0x00, 0x00, 0x6d, 0x61, 0x69, 0x6e,
  0x00, 0x00, 0x00, 0x00, 0x05, 0x00, 0x00, 0x00, 0x0c, 0x01, 0x00, 0x00,
  0xbc, 0x00, 0x00, 0x00, 0x74, 0x00, 0x00, 0x00, 0x3c, 0x00, 0x00, 0x00,
  0x04, 0x00, 0x00, 0x00, 0x16, 0xff, 0xff, 0xff, 0x10, 0x00, 0x00, 0x00,
  0x00, 0x00, 0x00, 0x08, 0x10, 0x00, 0x00, 0x00, 0x14, 0x00, 0x00, 0x00,
  0x06, 0xff, 0xff, 0xff, 0x00, 0x00, 0x00, 0x01, 0x01, 0x00, 0x00, 0x00,
  0x0b, 0x00, 0x00, 0x00, 0x03, 0x00, 0x00, 0x00, 0x0a, 0x00, 0x00, 0x00,
  0x02, 0x00, 0x00, 0x00, 0x01, 0x00, 0x00, 0x00, 0x96, 0xff, 0xff, 0xff,
  0x14, 0x00, 0x00, 0x00, 0x00, 0x00, 0x00, 0x0b, 0x14, 0x00, 0x00, 0x00,
  0x18, 0x00, 0x00, 0x00, 0x01, 0x00, 0x00, 0x00, 0x86, 0xff, 0xff, 0xff,
  0x00, 0x00, 0x00, 0x01, 0x01, 0x00, 0x00, 0x00, 0x0a, 0x00, 0x00, 0x00,
  0x02, 0x00, 0x00, 0x00, 0x09, 0x00, 0x00, 0x00, 0x04, 0x00, 0x00, 0x00,
  0x7e, 0xff, 0xff, 0xff, 0x10, 0x00, 0x00, 0x00, 0x00, 0x00, 0x00, 0x08,
  0x10, 0x00, 0x00, 0x00, 0x14, 0x00, 0x00, 0x00, 0x6e, 0xff, 0xff, 0xff,
  0x00, 0x00, 0x00, 0x01, 0x01, 0x00, 0x00, 0x00, 0x09, 0x00, 0x00, 0x00,
  0x03, 0x00, 0x00, 0x00, 0x08, 0x00, 0x00, 0x00, 0x03, 0x00, 0x00, 0x00,
  0xff, 0xff, 0xff, 0xff, 0x00, 0x00, 0x0e, 0x00, 0x1a, 0x00, 0x14, 0x00,
  0x10, 0x00, 0x0c, 0x00, 0x0b, 0x00, 0x04, 0x00, 0x0e, 0x00, 0x00, 0x00,
  0x1c, 0x00, 0x00, 0x00, 0x00, 0x00, 0x00, 0x0b, 0x1c, 0x00, 0x00, 0x00,
  0x20, 0x00, 0x00, 0x00, 0x01, 0x00, 0x00, 0x00, 0x00, 0x00, 0x06, 0x00,
  0x08, 0x00, 0x07, 0x00, 0x06, 0x00, 0x00, 0x00, 0x00, 0x00, 0x00, 0x01,
  0x01, 0x00, 0x00, 0x00, 0x08, 0x00, 0x00, 0x00, 0x02, 0x00, 0x00, 0x00,
  0x07, 0x00, 0x00, 0x00, 0x05, 0x00, 0x00, 0x00, 0x00, 0x00, 0x0e, 0x00,
  0x16, 0x00, 0x00, 0x00, 0x10, 0x00, 0x0c, 0x00, 0x0b, 0x00, 0x04, 0x00,
  0x0e, 0x00, 0x00, 0x00, 0x1c, 0x00, 0x00, 0x00, 0x00, 0x00, 0x00, 0x08,
  0x1c, 0x00, 0x00, 0x00, 0x20, 0x00, 0x00, 0x00, 0x00, 0x00, 0x0a, 0x00,
  0x08, 0x00, 0x00, 0x00, 0x00, 0x00, 0x07, 0x00, 0x0a, 0x00, 0x00, 0x00,
  0x00, 0x00, 0x00, 0x01, 0x01, 0x00, 0x00, 0x00, 0x07, 0x00, 0x00, 0x00,
  0x03, 0x00, 0x00, 0x00, 0x00, 0x00, 0x00, 0x00, 0x06, 0x00, 0x00, 0x00,
  0xff, 0xff, 0xff, 0xff, 0x01, 0x00, 0x00, 0x00, 0x0b, 0x00, 0x00, 0x00,
  0x01, 0x00, 0x00, 0x00, 0x00, 0x00, 0x00, 0x00, 0x0c, 0x00, 0x00, 0x00,
  0xd4, 0x03, 0x00, 0x00, 0x80, 0x03, 0x00, 0x00, 0x40, 0x03, 0x00, 0x00,
  0x00, 0x03, 0x00, 0x00, 0xc0, 0x02, 0x00, 0x00, 0x80, 0x02, 0x00, 0x00,
  0x18, 0x02, 0x00, 0x00, 0xb0, 0x01, 0x00, 0x00, 0x34, 0x01, 0x00, 0x00,
  0xcc, 0x00, 0x00, 0x00, 0x50, 0x00, 0x00, 0x00, 0x04, 0x00, 0x00, 0x00,
  0x72, 0xfc, 0xff, 0xff, 0x00, 0x00, 0x00, 0x01, 0x10, 0x00, 0x00, 0x00,
  0x10, 0x00, 0x00, 0x00, 0x0c, 0x00, 0x00, 0x00, 0x28, 0x00, 0x00, 0x00,
  0x20, 0xfc, 0xff, 0xff, 0x19, 0x00, 0x00, 0x00, 0x53, 0x74, 0x61, 0x74,
  0x65, 0x66, 0x75, 0x6c, 0x50, 0x61, 0x72, 0x74, 0x69, 0x74, 0x69, 0x6f,
  0x6e, 0x65, 0x64, 0x43, 0x61, 0x6c, 0x6c, 0x3a, 0x30, 0x00, 0x00, 0x00,
  0x02, 0x00, 0x00, 0x00, 0x01, 0x00, 0x00, 0x00, 0x02, 0x00, 0x00, 0x00,
  0xba, 0xfc, 0xff, 0xff, 0x00, 0x00, 0x00, 0x01, 0x10, 0x00, 0x00, 0x00,
  0x10, 0x00, 0x00, 0x00, 0x0b, 0x00, 0x00, 0x00, 0x58, 0x00, 0x00, 0x00,
  0x68, 0xfc, 0xff, 0xff, 0x4a, 0x00, 0x00, 0x00, 0x5f, 0x5f, 0x6d, 0x61,
  0x69, 0x6e, 0x5f, 0x5f, 0x2e, 0x53, 0x69, 0x6d, 0x70, 0x6c, 0x65, 0x4e,
  0x65, 0x74, 0x3b, 0x3b, 0x5f, 0x5f, 0x6d, 0x61, 0x69, 0x6e, 0x5f, 0x5f,
  0x2e, 0x53, 0x69, 0x6d, 0x70, 0x6c, 0x65, 0x4e, 0x65, 0x74, 0x2f, 0x74,
  0x6f, 0x72, 0x63, 0x68, 0x2e, 0x6e, 0x6e, 0x2e, 0x6d, 0x6f, 0x64, 0x75,
  0x6c, 0x65, 0x73, 0x2e, 0x6c, 0x69, 0x6e, 0x65, 0x61, 0x72, 0x2e, 0x4c,
  0x69, 0x6e, 0x65, 0x61, 0x72, 0x5f, 0x66, 0x63, 0x32, 0x3b, 0x00, 0x00,
  0x02, 0x00, 0x00, 0x00, 0x01, 0x00, 0x00, 0x00, 0x20, 0x00, 0x00, 0x00,
  0x32, 0xfd, 0xff, 0xff, 0x00, 0x00, 0x00, 0x01, 0x10, 0x00, 0x00, 0x00,
  0x10, 0x00, 0x00, 0x00, 0x0a, 0x00, 0x00, 0x00, 0x44, 0x00, 0x00, 0x00,
  0xe0, 0xfc, 0xff, 0xff, 0x36, 0x00, 0x00, 0x00, 0x5f, 0x5f, 0x6d, 0x61,
  0x69, 0x6e, 0x5f, 0x5f, 0x2e, 0x53, 0x69, 0x6d, 0x70, 0x6c, 0x65, 0x4e,
  0x65, 0x74, 0x2f, 0x74, 0x6f, 0x72, 0x63, 0x68, 0x2e, 0x6e, 0x6e, 0x2e,
  0x6d, 0x6f, 0x64, 0x75, 0x6c, 0x65, 0x73, 0x2e, 0x6c, 0x69, 0x6e, 0x65,
  0x61, 0x72, 0x2e, 0x4c, 0x69, 0x6e, 0x65, 0x61, 0x72, 0x5f, 0x66, 0x63,
  0x32, 0x3b, 0x00, 0x00, 0x02, 0x00, 0x00, 0x00, 0x01, 0x00, 0x00, 0x00,
  0x20, 0x00, 0x00, 0x00, 0x96, 0xfd, 0xff, 0xff, 0x00, 0x00, 0x00, 0x01,
  0x10, 0x00, 0x00, 0x00, 0x10, 0x00, 0x00, 0x00, 0x09, 0x00, 0x00, 0x00,
  0x58, 0x00, 0x00, 0x00, 0x44, 0xfd, 0xff, 0xff, 0x4a, 0x00, 0x00, 0x00,
  0x5f, 0x5f, 0x6d, 0x61, 0x69, 0x6e, 0x5f, 0x5f, 0x2e, 0x53, 0x69, 0x6d,
  0x70, 0x6c, 0x65, 0x4e, 0x65, 0x74, 0x3b, 0x3b, 0x5f, 0x5f, 0x6d, 0x61,
  0x69, 0x6e, 0x5f, 0x5f, 0x2e, 0x53, 0x69, 0x6d, 0x70, 0x6c, 0x65, 0x4e,
  0x65, 0x74, 0x2f, 0x74, 0x6f, 0x72, 0x63, 0x68, 0x2e, 0x6e, 0x6e, 0x2e,
  0x6d, 0x6f, 0x64, 0x75, 0x6c, 0x65, 0x73, 0x2e, 0x6c, 0x69, 0x6e, 0x65,
  0x61, 0x72, 0x2e, 0x4c, 0x69, 0x6e, 0x65, 0x61, 0x72, 0x5f, 0x66, 0x63,
  0x31, 0x3b, 0x00, 0x00, 0x02, 0x00, 0x00, 0x00, 0x01, 0x00, 0x00, 0x00,
  0x20, 0x00, 0x00, 0x00, 0x0e, 0xfe, 0xff, 0xff, 0x00, 0x00, 0x00, 0x01,
  0x10, 0x00, 0x00, 0x00, 0x10, 0x00, 0x00, 0x00, 0x08, 0x00, 0x00, 0x00,
  0x44, 0x00, 0x00, 0x00, 0xbc, 0xfd, 0xff, 0xff, 0x37, 0x00, 0x00, 0x00,
  0x5f, 0x5f, 0x6d, 0x61, 0x69, 0x6e, 0x5f, 0x5f, 0x2e, 0x53, 0x69, 0x6d,
  0x70, 0x6c, 0x65, 0x4e, 0x65, 0x74, 0x2f, 0x74, 0x6f, 0x72, 0x63, 0x68,
  0x2e, 0x6e, 0x6e, 0x2e, 0x6d, 0x6f, 0x64, 0x75, 0x6c, 0x65, 0x73, 0x2e,
  0x6c, 0x69, 0x6e, 0x65, 0x61, 0x72, 0x2e, 0x4c, 0x69, 0x6e, 0x65, 0x61,
  0x72, 0x5f, 0x66, 0x63, 0x31, 0x3b, 0x31, 0x00, 0x02, 0x00, 0x00, 0x00,
  0x01, 0x00, 0x00, 0x00, 0x20, 0x00, 0x00, 0x00, 0x72, 0xfe, 0xff, 0xff,
  0x00, 0x00, 0x00, 0x01, 0x10, 0x00, 0x00, 0x00, 0x10, 0x00, 0x00, 0x00,
  0x07, 0x00, 0x00, 0x00, 0x44, 0x00, 0x00, 0x00, 0x20, 0xfe, 0xff, 0xff,
  0x36, 0x00, 0x00, 0x00, 0x5f, 0x5f, 0x6d, 0x61, 0x69, 0x6e, 0x5f, 0x5f,
  0x2e, 0x53, 0x69, 0x6d, 0x70, 0x6c, 0x65, 0x4e, 0x65, 0x74, 0x2f, 0x74,
  0x6f, 0x72, 0x63, 0x68, 0x2e, 0x6e, 0x6e, 0x2e, 0x6d, 0x6f, 0x64, 0x75,
  0x6c, 0x65, 0x73, 0x2e, 0x6c, 0x69, 0x6e, 0x65, 0x61, 0x72, 0x2e, 0x4c,
  0x69, 0x6e, 0x65, 0x61, 0x72, 0x5f, 0x66, 0x63, 0x31, 0x3b, 0x00, 0x00,
  0x02, 0x00, 0x00, 0x00, 0x20, 0x00, 0x00, 0x00, 0x0a, 0x00, 0x00, 0x00,
  0xd6, 0xfe, 0xff, 0xff, 0x00, 0x00, 0x00, 0x01, 0x10, 0x00, 0x00, 0x00,
  0x10, 0x00, 0x00, 0x00, 0x06, 0x00, 0x00, 0x00, 0x1c, 0x00, 0x00, 0x00,
  0x84, 0xfe, 0xff, 0xff, 0x0f, 0x00, 0x00, 0x00, 0x61, 0x72, 0x69, 0x74,
  0x68, 0x2e, 0x63, 0x6f, 0x6e, 0x73, 0x74, 0x61, 0x6e, 0x74, 0x34, 0x00,
  0x02, 0x00, 0x00, 0x00, 0x01, 0x00, 0x00, 0x00, 0x20, 0x00, 0x00, 0x00,
  0x12, 0xff, 0xff, 0xff, 0x00, 0x00, 0x00, 0x01, 0x10, 0x00, 0x00, 0x00,
  0x10, 0x00, 0x00, 0x00, 0x05, 0x00, 0x00, 0x00, 0x1c, 0x00, 0x00, 0x00,
  0xc0, 0xfe, 0xff, 0xff, 0x0f, 0x00, 0x00, 0x00, 0x61, 0x72, 0x69, 0x74,
  0x68, 0x2e, 0x63, 0x6f, 0x6e, 0x73, 0x74, 0x61, 0x6e, 0x74, 0x33, 0x00,
  0x02, 0x00, 0x00, 0x00, 0x01, 0x00, 0x00, 0x00, 0x20, 0x00, 0x00, 0x00,
  0x4e, 0xff, 0xff, 0xff, 0x00, 0x00, 0x00, 0x01, 0x10, 0x00, 0x00, 0x00,
  0x10, 0x00, 0x00, 0x00, 0x04, 0x00, 0x00, 0x00, 0x1c, 0x00, 0x00, 0x00,
  0xfc, 0xfe, 0xff, 0xff, 0x0f, 0x00, 0x00, 0x00, 0x61, 0x72, 0x69, 0x74,
  0x68, 0x2e, 0x63, 0x6f, 0x6e, 0x73, 0x74, 0x61, 0x6e, 0x74, 0x32, 0x00,
  0x02, 0x00, 0x00, 0x00, 0x20, 0x00, 0x00, 0x00, 0x20, 0x00, 0x00, 0x00,
  0x8a, 0xff, 0xff, 0xff, 0x00, 0x00, 0x00, 0x01, 0x10, 0x00, 0x00, 0x00,
  0x10, 0x00, 0x00, 0x00, 0x03, 0x00, 0x00, 0x00, 0x1c, 0x00, 0x00, 0x00,
  0x38, 0xff, 0xff, 0xff, 0x0f, 0x00, 0x00, 0x00, 0x61, 0x72, 0x69, 0x74,
  0x68, 0x2e, 0x63, 0x6f, 0x6e, 0x73, 0x74, 0x61, 0x6e, 0x74, 0x31, 0x00,
  0x02, 0x00, 0x00, 0x00, 0x02, 0x00, 0x00, 0x00, 0x20, 0x00, 0x00, 0x00,
  0xc6, 0xff, 0xff, 0xff, 0x00, 0x00, 0x00, 0x01, 0x10, 0x00, 0x00, 0x00,
  0x10, 0x00, 0x00, 0x00, 0x02, 0x00, 0x00, 0x00, 0x1c, 0x00, 0x00, 0x00,
  0x74, 0xff, 0xff, 0xff, 0x0e, 0x00, 0x00, 0x00, 0x61, 0x72, 0x69, 0x74,
  0x68, 0x2e, 0x63, 0x6f, 0x6e, 0x73, 0x74, 0x61, 0x6e, 0x74, 0x00, 0x00,
  0x01, 0x00, 0x00, 0x00, 0x02, 0x00, 0x00, 0x00, 0x00, 0x00, 0x16, 0x00,
  0x18, 0x00, 0x14, 0x00, 0x00, 0x00, 0x10, 0x00, 0x0c, 0x00, 0x08, 0x00,
  0x00, 0x00, 0x00, 0x00, 0x00, 0x00, 0x07, 0x00, 0x16, 0x00, 0x00, 0x00,
  0x00, 0x00, 0x00, 0x01, 0x10, 0x00, 0x00, 0x00, 0x10, 0x00, 0x00, 0x00,
  0x01, 0x00, 0x00, 0x00, 0x28, 0x00, 0x00, 0x00, 0xc4, 0xff, 0xff, 0xff,
  0x18, 0x00, 0x00, 0x00, 0x73, 0x65, 0x72, 0x76, 0x69, 0x6e, 0x67, 0x5f,
  0x64, 0x65, 0x66, 0x61, 0x75, 0x6c, 0x74, 0x5f, 0x61, 0x72, 0x67, 0x73,
  0x5f, 0x30, 0x3a, 0x30, 0x00, 0x00, 0x00, 0x00, 0x02, 0x00, 0x00, 0x00,
  0x01, 0x00, 0x00, 0x00, 0x0a, 0x00, 0x00, 0x00, 0x02, 0x00, 0x00, 0x00,
  0x1c, 0x00, 0x00, 0x00, 0x08, 0x00, 0x00, 0x00, 0x04, 0x00, 0x04, 0x00,
  0x04, 0x00, 0x00, 0x00, 0x0c, 0x00, 0x10, 0x00, 0x0f, 0x00, 0x00, 0x00,
  0x08, 0x00, 0x04, 0x00, 0x0c, 0x00, 0x00, 0x00, 0x09, 0x00, 0x00, 0x00,
  0x05, 0x00, 0x00, 0x00, 0x00, 0x00, 0x00, 0x09
};
//TODO put this in your header file and remove the line
// unsigned int simple_net_tflite_len = 8012;
