#include <cstdint>
#include "control_net.hpp"

alignas(16) const unsigned char control_net_tflite[] = {
  0x1c, 0x00, 0x00, 0x00, 0x54, 0x46, 0x4c, 0x33, 0x14, 0x00, 0x20, 0x00,
  0x1c, 0x00, 0x18, 0x00, 0x14, 0x00, 0x10, 0x00, 0x0c, 0x00, 0x00, 0x00,
  0x08, 0x00, 0x04, 0x00, 0x14, 0x00, 0x00, 0x00, 0x1c, 0x00, 0x00, 0x00,
  0x84, 0x00, 0x00, 0x00, 0xdc, 0x00, 0x00, 0x00, 0xcc, 0x18, 0x00, 0x00,
  0xdc, 0x18, 0x00, 0x00, 0xf8, 0x1e, 0x00, 0x00, 0x03, 0x00, 0x00, 0x00,
  0x01, 0x00, 0x00, 0x00, 0x04, 0x00, 0x00, 0x00, 0x36, 0xe6, 0xff, 0xff,
  0x0c, 0x00, 0x00, 0x00, 0x1c, 0x00, 0x00, 0x00, 0x3c, 0x00, 0x00, 0x00,
  0x0f, 0x00, 0x00, 0x00, 0x73, 0x65, 0x72, 0x76, 0x69, 0x6e, 0x67, 0x5f,
  0x64, 0x65, 0x66, 0x61, 0x75, 0x6c, 0x74, 0x00, 0x01, 0x00, 0x00, 0x00,
  0x04, 0x00, 0x00, 0x00, 0x98, 0xff, 0xff, 0xff, 0x0c, 0x00, 0x00, 0x00,
  0x04, 0x00, 0x00, 0x00, 0x08, 0x00, 0x00, 0x00, 0x6f, 0x75, 0x74, 0x70,
  0x75, 0x74, 0x5f, 0x30, 0x00, 0x00, 0x00, 0x00, 0x01, 0x00, 0x00, 0x00,
  0x04, 0x00, 0x00, 0x00, 0xce, 0xe7, 0xff, 0xff, 0x04, 0x00, 0x00, 0x00,
  0x06, 0x00, 0x00, 0x00, 0x61, 0x72, 0x67, 0x73, 0x5f, 0x30, 0x00, 0x00,
  0x02, 0x00, 0x00, 0x00, 0x34, 0x00, 0x00, 0x00, 0x04, 0x00, 0x00, 0x00,
  0xdc, 0xff, 0xff, 0xff, 0x0f, 0x00, 0x00, 0x00, 0x04, 0x00, 0x00, 0x00,
  0x13, 0x00, 0x00, 0x00, 0x43, 0x4f, 0x4e, 0x56, 0x45, 0x52, 0x53, 0x49,
  0x4f, 0x4e, 0x5f, 0x4d, 0x45, 0x54, 0x41, 0x44, 0x41, 0x54, 0x41, 0x00,
  0x08, 0x00, 0x0c, 0x00, 0x08, 0x00, 0x04, 0x00, 0x08, 0x00, 0x00, 0x00,
  0x0e, 0x00, 0x00, 0x00, 0x04, 0x00, 0x00, 0x00, 0x13, 0x00, 0x00, 0x00,
  0x6d, 0x69, 0x6e, 0x5f, 0x72, 0x75, 0x6e, 0x74, 0x69, 0x6d, 0x65, 0x5f,
  0x76, 0x65, 0x72, 0x73, 0x69, 0x6f, 0x6e, 0x00, 0x10, 0x00, 0x00, 0x00,
  0xec, 0x17, 0x00, 0x00, 0xe4, 0x17, 0x00, 0x00, 0xbc, 0x17, 0x00, 0x00,
  0x44, 0x17, 0x00, 0x00, 0xf4, 0x14, 0x00, 0x00, 0xe4, 0x08, 0x00, 0x00,
  0x54, 0x01, 0x00, 0x00, 0xc4, 0x00, 0x00, 0x00, 0xbc, 0x00, 0x00, 0x00,
  0xb4, 0x00, 0x00, 0x00, 0xac, 0x00, 0x00, 0x00, 0xa4, 0x00, 0x00, 0x00,
  0x9c, 0x00, 0x00, 0x00, 0x94, 0x00, 0x00, 0x00, 0x74, 0x00, 0x00, 0x00,
  0x04, 0x00, 0x00, 0x00, 0x82, 0xe8, 0xff, 0xff, 0x04, 0x00, 0x00, 0x00,
  0x60, 0x00, 0x00, 0x00, 0x10, 0x00, 0x00, 0x00, 0x00, 0x00, 0x00, 0x00,
  0x08, 0x00, 0x0e, 0x00, 0x08, 0x00, 0x04, 0x00, 0x08, 0x00, 0x00, 0x00,
  0x10, 0x00, 0x00, 0x00, 0x24, 0x00, 0x00, 0x00, 0x00, 0x00, 0x06, 0x00,
  0x08, 0x00, 0x04, 0x00, 0x06, 0x00, 0x00, 0x00, 0x04, 0x00, 0x00, 0x00,
  0x00, 0x00, 0x00, 0x00, 0x0c, 0x00, 0x18, 0x00, 0x14, 0x00, 0x10, 0x00,
  0x0c, 0x00, 0x04, 0x00, 0x0c, 0x00, 0x00, 0x00, 0x81, 0xdb, 0x17, 0x21,
  0xfb, 0x42, 0xb6, 0x6d, 0x01, 0x00, 0x00, 0x00, 0x02, 0x00, 0x00, 0x00,
  0x04, 0x00, 0x00, 0x00, 0x06, 0x00, 0x00, 0x00, 0x32, 0x2e, 0x31, 0x37,
  0x2e, 0x30, 0x00, 0x00, 0xee, 0xe8, 0xff, 0xff, 0x04, 0x00, 0x00, 0x00,
  0x10, 0x00, 0x00, 0x00, 0x32, 0x2e, 0x30, 0x2e, 0x30, 0x00, 0x00, 0x00,
  0x00, 0x00, 0x00, 0x00, 0x00, 0x00, 0x00, 0x00, 0xd8, 0xe2, 0xff, 0xff,
  0xdc, 0xe2, 0xff, 0xff, 0xe0, 0xe2, 0xff, 0xff, 0xe4, 0xe2, 0xff, 0xff,
  0xe8, 0xe2, 0xff, 0xff, 0xec, 0xe2, 0xff, 0xff, 0x22, 0xe9, 0xff, 0xff,
  0x04, 0x00, 0x00, 0x00, 0x80, 0x00, 0x00, 0x00, 0x34, 0x9e, 0x9c, 0xbe,
  0x97, 0xaa, 0x69, 0xbc, 0x4c, 0xbe, 0x96, 0xbd, 0x73, 0x24, 0x67, 0x3c,
  0xef, 0xbb, 0xe5, 0xbc, 0x14, 0xac, 0xdf, 0xbd, 0x0b, 0x17, 0x81, 0xbc,
  0xbb, 0x84, 0x16, 0x3e, 0x82, 0x38, 0x1c, 0xbd, 0x88, 0xe9, 0x6c, 0x3f,
  0xd9, 0xf1, 0x9f, 0xbd, 0xa9, 0x5a, 0x55, 0xbf, 0xfe, 0x1c, 0x37, 0x3d,
  0x46, 0x01, 0x79, 0x3f, 0xcf, 0xba, 0xdb, 0xbd, 0xe6, 0xa2, 0x93, 0xbc,
  0x01, 0x45, 0x84, 0xbb, 0x62, 0x3f, 0x2b, 0xbb, 0x50, 0x42, 0x2b, 0x3f,
  0x1c, 0x3b, 0x92, 0xbf, 0x12, 0xf6, 0x6f, 0xbf, 0x36, 0x4d, 0x91, 0x3c,
  0x75, 0x6c, 0x09, 0xbf, 0xc3, 0x4c, 0xae, 0xbd, 0x34, 0x80, 0x93, 0x3f,
  0xd5, 0xa4, 0x88, 0xbf, 0x0a, 0xa8, 0x80, 0xbf, 0x85, 0x0e, 0x84, 0x3d,
  0x10, 0x54, 0x8f, 0xbf, 0x7c, 0x4b, 0x63, 0xbd, 0x7e, 0x4f, 0x26, 0x3d,
  0x7c, 0xa7, 0x63, 0x3f, 0xae, 0xe9, 0xff, 0xff, 0x04, 0x00, 0x00, 0x00,
  0x80, 0x07, 0x00, 0x00, 0x88, 0xe3, 0x20, 0x3f, 0x23, 0x4a, 0x25, 0x3e,
  0x05, 0x31, 0xd9, 0xbd, 0xaf, 0xfd, 0x42, 0xbe, 0x7c, 0xd7, 0x1c, 0xbe,
  0x66, 0x77, 0x20, 0xc0, 0x45, 0x4b, 0xad, 0xbe, 0x94, 0x7e, 0xd6, 0xbe,
  0xfe, 0x05, 0x42, 0x3f, 0x20, 0x53, 0x36, 0xbf, 0x06, 0x5d, 0x66, 0x3e,
  0x60, 0xa1, 0x93, 0x3e, 0xef, 0x0e, 0x73, 0x3e, 0xc9, 0xdb, 0xa4, 0x3e,
  0xf8, 0x6e, 0xb0, 0x3e, 0xe9, 0x77, 0x96, 0x3e, 0xdc, 0x86, 0x94, 0xbe,
  0xef, 0x41, 0x47, 0xbe, 0x9a, 0x32, 0x80, 0x3d, 0xcb, 0x5f, 0x67, 0xbc,
  0x5c, 0xa7, 0x4c, 0xc0, 0xc7, 0x39, 0x71, 0xbc, 0xa7, 0x72, 0xf1, 0xbc,
  0x83, 0x7b, 0x84, 0x40, 0x83, 0xfa, 0x2d, 0xbf, 0x26, 0xcd, 0x81, 0x3f,
  0xa9, 0x8a, 0x89, 0x3e, 0x6d, 0xc5, 0x26, 0xbe, 0xa7, 0x21, 0x58, 0xc0,
  0xd6, 0xfe, 0xe0, 0x3c, 0x12, 0x90, 0x11, 0x3e, 0x38, 0xd3, 0x45, 0x3e,
  0x06, 0x72, 0xc2, 0x3e, 0x8e, 0x41, 0xc2, 0x3e, 0x40, 0x0b, 0xad, 0x3d,
  0x51, 0xb3, 0x49, 0xbf, 0x70, 0xd8, 0x48, 0x3d, 0xfc, 0x1d, 0x9e, 0xbe,
  0xb6, 0x2e, 0xd7, 0x3d, 0x8a, 0x9c, 0x09, 0xbe, 0xc0, 0x27, 0x0e, 0xbe,
  0x47, 0x90, 0x0e, 0xbf, 0xd5, 0x1e, 0x06, 0xbf, 0xf0, 0x64, 0x54, 0x3e,
  0xa0, 0x57, 0xc7, 0x3e, 0x58, 0xa2, 0x46, 0x3d, 0xfb, 0x9f, 0x05, 0xbf,
  0x9d, 0x11, 0xc7, 0xbd, 0xc3, 0x1e, 0x45, 0x3d, 0xbe, 0x92, 0x8d, 0xbe,
  0x8b, 0x63, 0x2b, 0xbf, 0x37, 0x87, 0x15, 0xbe, 0xb1, 0xc5, 0x26, 0x3c,
  0x4b, 0xc3, 0xac, 0x40, 0x45, 0xd1, 0xd1, 0xbd, 0x63, 0xd7, 0xb3, 0x3f,
  0x86, 0xe7, 0x28, 0x3e, 0x41, 0xaf, 0x07, 0xbe, 0x04, 0xf4, 0x40, 0x40,
  0xd7, 0xd7, 0xe8, 0x3e, 0xed, 0x64, 0x26, 0x3d, 0x6b, 0x7d, 0x48, 0x3e,
  0x2c, 0xd6, 0xc3, 0xbc, 0x46, 0x82, 0xb0, 0xbc, 0x62, 0xba, 0x0b, 0xbe,
  0x57, 0x06, 0x9e, 0x3f, 0x1c, 0x8c, 0xae, 0xbc, 0x01, 0x3d, 0x40, 0xbd,
  0x83, 0x91, 0x57, 0x3f, 0xc9, 0x52, 0xc0, 0x3d, 0x61, 0xc5, 0x40, 0xbe,
  0xb7, 0x4e, 0x4c, 0x3e, 0xfe, 0xbf, 0xec, 0x3d, 0xe2, 0xb2, 0x0c, 0xbe,
  0x97, 0xf3, 0x86, 0xc0, 0x92, 0xfd, 0x80, 0xbe, 0x9a, 0xb7, 0xca, 0xbc,
  0xe9, 0x28, 0xbd, 0x3e, 0x31, 0x61, 0x90, 0xbd, 0x34, 0x77, 0x56, 0x3e,
  0x76, 0x17, 0x09, 0x40, 0x1a, 0x11, 0x67, 0x3e, 0x6b, 0x0a, 0x00, 0x3e,
  0x52, 0x7d, 0xb0, 0x3e, 0x99, 0x42, 0xb2, 0xbc, 0x13, 0x53, 0xea, 0xbc,
  0x5e, 0xb4, 0xa6, 0xbd, 0xbf, 0x13, 0x80, 0xbd, 0x45, 0x89, 0x7b, 0x3e,
  0x71, 0x4b, 0x33, 0x3f, 0x31, 0x61, 0xb4, 0xbd, 0x9c, 0x0e, 0xf3, 0x3c,
  0xc5, 0xbb, 0x6f, 0xbd, 0x61, 0x02, 0x61, 0x3e, 0x19, 0x2d, 0x0f, 0x3d,
  0x64, 0x25, 0xf8, 0xbe, 0x0e, 0x7d, 0xfa, 0xbc, 0x7d, 0x6f, 0x55, 0xbe,
  0x60, 0xb4, 0x98, 0xbf, 0x9a, 0x3f, 0x92, 0xbc, 0x50, 0x70, 0x96, 0xbe,
  0xc0, 0x1c, 0x3a, 0xbe, 0x48, 0x21, 0x64, 0xbd, 0xc6, 0xf9, 0x89, 0x3e,
  0xf1, 0xe8, 0x50, 0xc0, 0x2e, 0x3a, 0xd0, 0x3d, 0xd5, 0x11, 0x57, 0xbd,
  0xdc, 0xa4, 0xf5, 0xbe, 0x9a, 0x7a, 0x92, 0xbd, 0x4d, 0x3d, 0x85, 0xbe,
  0xdb, 0x07, 0x78, 0x3e, 0xd8, 0x9e, 0x8c, 0xbe, 0x92, 0x15, 0xee, 0x3c,
  0x77, 0x29, 0x1b, 0x3f, 0x03, 0xca, 0xe2, 0x3c, 0x53, 0x4c, 0xe3, 0xbe,
  0x57, 0xd9, 0x22, 0x3f, 0xc9, 0xcd, 0x14, 0xbe, 0x6b, 0x00, 0x1c, 0x3f,
  0xae, 0xf4, 0x52, 0x3e, 0x7c, 0xcc, 0xa2, 0x3c, 0xa7, 0x76, 0xbc, 0x3b,
  0x6b, 0x6e, 0x1e, 0xc0, 0x47, 0x09, 0x38, 0x3e, 0x81, 0x8d, 0x0f, 0xbd,
  0xaf, 0x2c, 0xa5, 0xbf, 0x48, 0x79, 0xaa, 0xbd, 0x82, 0xd8, 0x80, 0xbe,
  0x5a, 0x19, 0x95, 0x3f, 0xc9, 0x43, 0x07, 0x3e, 0xdd, 0x32, 0x98, 0x3e,
  0xd1, 0x26, 0xfd, 0x3f, 0x8d, 0xeb, 0x27, 0x3b, 0xbd, 0xe1, 0xaf, 0xbd,
  0x87, 0x46, 0xec, 0x3c, 0xa2, 0x00, 0x80, 0xbe, 0x6d, 0x8d, 0x34, 0xbe,
  0x47, 0xd4, 0xbd, 0xbd, 0x3d, 0x02, 0x4a, 0xbe, 0x4e, 0x82, 0x8a, 0xbf,
  0xeb, 0xb5, 0x8f, 0x3f, 0x6f, 0xe2, 0x20, 0x3f, 0xcb, 0x4d, 0xdc, 0x3e,
  0xd7, 0x0e, 0xbf, 0x3f, 0x4c, 0x9f, 0x98, 0x3e, 0x87, 0xd0, 0xd9, 0x3e,
  0xac, 0x7e, 0x6f, 0xbc, 0x46, 0x21, 0x83, 0xbd, 0x92, 0x7d, 0xef, 0xbd,
  0x14, 0xf2, 0x95, 0xbc, 0xb4, 0xb8, 0x0b, 0xbe, 0x7d, 0x21, 0xd5, 0xbe,
  0xcc, 0xdb, 0x48, 0x3e, 0xb9, 0x15, 0xf3, 0xbd, 0x75, 0x31, 0x35, 0xbe,
  0x17, 0x06, 0x06, 0xbf, 0x6e, 0xd0, 0xf6, 0xbd, 0x9a, 0xa2, 0xe0, 0xbd,
  0xd4, 0x7c, 0x79, 0xbe, 0x3f, 0x78, 0x1a, 0xbc, 0xa3, 0x51, 0x31, 0x3f,
  0xef, 0x71, 0x46, 0x3c, 0x69, 0xc8, 0x48, 0xbf, 0x92, 0x1b, 0x5e, 0xbe,
  0x04, 0xd9, 0xb4, 0xbd, 0xd3, 0x26, 0xab, 0xbe, 0xf8, 0xa5, 0x9f, 0xbd,
  0x94, 0x51, 0xec, 0x3d, 0x5f, 0x40, 0xbe, 0xbd, 0x58, 0x53, 0xac, 0x3e,
  0x53, 0x2e, 0xe4, 0x3f, 0xb1, 0x1f, 0x28, 0xbf, 0x91, 0x54, 0x73, 0xbe,
  0x57, 0xf4, 0x69, 0xbe, 0xa9, 0x3a, 0x1b, 0x3f, 0xfc, 0xe9, 0x7a, 0x3d,
  0xaa, 0xc6, 0x06, 0x3e, 0xb6, 0x32, 0x17, 0xbe, 0xe0, 0x06, 0xa8, 0xbd,
  0xe2, 0xb5, 0xeb, 0x3d, 0x06, 0x75, 0x67, 0xbe, 0x80, 0xa7, 0x67, 0xbe,
  0x9c, 0x11, 0x8b, 0xbe, 0x64, 0x6c, 0xb2, 0xbe, 0x40, 0xfd, 0x95, 0x3e,
  0xe8, 0x46, 0xb8, 0x3f, 0x05, 0xa1, 0xf0, 0x3e, 0x43, 0x6c, 0x3d, 0x3d,
  0xbd, 0x1f, 0xe5, 0x3e, 0x6b, 0xd3, 0xa0, 0x3e, 0xb1, 0x16, 0x85, 0x3e,
  0xee, 0xf6, 0xa2, 0x3e, 0x77, 0xc1, 0xcd, 0xbe, 0xab, 0xe7, 0x13, 0x3e,
  0x26, 0x32, 0xd8, 0xbe, 0xf8, 0xff, 0xc3, 0x3d, 0x26, 0x52, 0xa8, 0xbe,
  0xe3, 0xcb, 0x39, 0xbc, 0xdd, 0xf9, 0x43, 0x3f, 0x13, 0xc1, 0x29, 0xbf,
  0x83, 0x0b, 0x75, 0xbe, 0x68, 0xe1, 0x62, 0x3e, 0x85, 0x98, 0x03, 0x3f,
  0x4b, 0xf8, 0xd9, 0x3f, 0x3c, 0xb1, 0x1d, 0x3c, 0x44, 0xbb, 0x3b, 0x3f,
  0xff, 0x4c, 0xc5, 0xbd, 0xc8, 0xc5, 0x50, 0xbd, 0x4a, 0xe8, 0x30, 0xbd,
  0x5d, 0x00, 0x02, 0xbd, 0x1b, 0xf6, 0x6a, 0xbf, 0x1a, 0x29, 0x92, 0x3e,
  0x41, 0x79, 0x7e, 0x3e, 0xe2, 0xd2, 0x82, 0x3e, 0x4c, 0xcd, 0x8e, 0x3e,
  0xd3, 0x32, 0xf4, 0x3f, 0xd2, 0xfe, 0x20, 0x3e, 0xae, 0x4f, 0x91, 0xbe,
  0x4c, 0xb1, 0x14, 0xbf, 0x64, 0xd5, 0x84, 0x3f, 0x6c, 0xa5, 0x58, 0xbe,
  0x50, 0xd4, 0xb8, 0xbe, 0x96, 0x76, 0x86, 0x3d, 0xe6, 0x14, 0x30, 0x3e,
  0x82, 0xd8, 0xcb, 0x3e, 0x13, 0x86, 0x85, 0xbd, 0x39, 0xe9, 0xdf, 0xbd,
  0xd6, 0xcf, 0x09, 0x3d, 0x30, 0xfc, 0xb1, 0xbe, 0xe0, 0xbf, 0x2b, 0x3e,
  0x4c, 0xaa, 0xaf, 0xbd, 0xae, 0x69, 0x3f, 0x3e, 0x5f, 0x68, 0xb8, 0x3e,
  0xd3, 0x6d, 0xeb, 0x3f, 0x2d, 0xa1, 0xbe, 0x3e, 0x82, 0x89, 0x2c, 0xbe,
  0x41, 0x44, 0x41, 0x3d, 0x4b, 0x9f, 0x8f, 0x3d, 0x05, 0xb2, 0x49, 0xbd,
  0x1f, 0xe4, 0xa4, 0xbe, 0x8f, 0x04, 0x02, 0xbe, 0x46, 0x7c, 0xe7, 0x3c,
  0x5e, 0x8c, 0x4e, 0xbf, 0xff, 0xdc, 0x25, 0xbd, 0x3a, 0xaf, 0x9a, 0xbe,
  0x96, 0x1b, 0x0c, 0x40, 0x61, 0x76, 0x66, 0xbe, 0x3b, 0x2b, 0x7c, 0x3d,
  0x30, 0xf0, 0x92, 0xbf, 0x9a, 0x35, 0xe5, 0xbd, 0x8e, 0x28, 0xb6, 0x3d,
  0xc9, 0xb4, 0x04, 0x40, 0x3b, 0xd7, 0x32, 0x3d, 0xfb, 0x69, 0x17, 0x3d,
  0xae, 0xea, 0x76, 0xbd, 0x9b, 0x0f, 0x5a, 0x3e, 0xd7, 0x67, 0x94, 0x3e,
  0x7c, 0x4c, 0x0f, 0x39, 0x71, 0x3d, 0x89, 0xbd, 0x2b, 0xb2, 0xb9, 0x3d,
  0x19, 0x7f, 0x3b, 0xc0, 0x6a, 0x8d, 0xa8, 0x3d, 0x28, 0xb7, 0x9d, 0x3d,
  0x69, 0xcf, 0x7b, 0xc0, 0xbd, 0xfb, 0x07, 0xbf, 0xfc, 0xeb, 0x8e, 0xbf,
  0x49, 0xdd, 0x31, 0xbe, 0xd0, 0x2d, 0x54, 0x40, 0xd8, 0xb4, 0xac, 0x3d,
  0x5b, 0x5a, 0x12, 0xbe, 0xe2, 0x1d, 0xff, 0x3d, 0xb8, 0x51, 0xb0, 0xbe,
  0xb2, 0x45, 0x0a, 0xbe, 0x63, 0xff, 0x51, 0x3f, 0x2c, 0x70, 0x85, 0x3e,
  0x1c, 0xe4, 0x9d, 0xbf, 0x6f, 0x99, 0xad, 0x3e, 0x3d, 0x34, 0x48, 0x3f,
  0x22, 0x5d, 0x5f, 0x3f, 0xad, 0x65, 0x1e, 0xbf, 0x2c, 0xf0, 0x8c, 0x3e,
  0x59, 0xa4, 0xc3, 0x3d, 0xf7, 0xa5, 0x35, 0xbe, 0x1a, 0x73, 0xf6, 0xbd,
  0x02, 0x6c, 0x10, 0x3d, 0x09, 0x71, 0x84, 0xbe, 0x12, 0xa3, 0x2d, 0x3d,
  0xe1, 0xad, 0xb8, 0x3d, 0xf4, 0x83, 0x01, 0xbe, 0xbb, 0xc5, 0xdb, 0xbe,
  0x4e, 0x32, 0xcb, 0x3f, 0xa0, 0x8f, 0x5d, 0x3f, 0x68, 0x7f, 0x42, 0xbf,
  0x0b, 0x05, 0xf7, 0xbe, 0x52, 0x4e, 0x02, 0x3f, 0xeb, 0xf2, 0x38, 0xbe,
  0xc4, 0xa9, 0x8b, 0x3d, 0x6e, 0x46, 0x3d, 0x3d, 0x34, 0xe8, 0x93, 0xbd,
  0x7d, 0xa5, 0x3f, 0xbc, 0xd3, 0x9f, 0x56, 0x3c, 0xe4, 0x26, 0x77, 0xbe,
  0xf3, 0xb8, 0x02, 0xbb, 0xd6, 0xa0, 0x69, 0x3f, 0xd5, 0x3f, 0x12, 0x3f,
  0x76, 0x19, 0x8b, 0xbe, 0x24, 0x32, 0x1b, 0xbe, 0x19, 0xb9, 0xbb, 0x3e,
  0xc3, 0xb9, 0xcd, 0x3f, 0x47, 0x0d, 0xe6, 0x3d, 0xbd, 0x28, 0x27, 0x3f,
  0x5b, 0x27, 0x8c, 0x3d, 0x05, 0xff, 0xce, 0xbd, 0x51, 0x5d, 0xb8, 0xbc,
  0xef, 0x27, 0x95, 0x3c, 0xf9, 0xad, 0x54, 0x3e, 0x39, 0x6a, 0xea, 0x3d,
  0xfc, 0x26, 0x18, 0xbd, 0x08, 0xf5, 0x01, 0x3e, 0xaa, 0x25, 0x14, 0x3d,
  0xd6, 0x3d, 0xa3, 0xbe, 0x92, 0x6e, 0x8d, 0x3c, 0xab, 0x3e, 0xb2, 0xbd,
  0x23, 0x76, 0xfc, 0xbe, 0xa0, 0x73, 0x9a, 0x3e, 0xd7, 0x68, 0xca, 0xbd,
  0x76, 0x9e, 0xb8, 0xbd, 0x81, 0x84, 0x8b, 0xbd, 0xd7, 0x5b, 0x0e, 0xbd,
  0x1d, 0x41, 0xc9, 0xbd, 0x79, 0xaa, 0xab, 0x3e, 0x42, 0x1a, 0x12, 0x3f,
  0xa7, 0x9b, 0x6f, 0x3e, 0xf8, 0x5b, 0xbe, 0xbe, 0x2d, 0xc7, 0xcc, 0xbc,
  0x62, 0xa9, 0xd5, 0xbf, 0xf0, 0xd4, 0x3d, 0x3e, 0x3a, 0x50, 0x6f, 0xbd,
  0x2f, 0xfc, 0x62, 0xc0, 0x8a, 0x55, 0xaa, 0xbe, 0x01, 0x09, 0xa0, 0xbf,
  0xff, 0xd4, 0x11, 0xbe, 0xe4, 0x9e, 0xde, 0xbe, 0xf7, 0x01, 0xc1, 0xbd,
  0xaa, 0x1c, 0x9a, 0x3e, 0x59, 0x39, 0x2f, 0x3e, 0xaf, 0x00, 0xbe, 0xbe,
  0x8f, 0x6f, 0x97, 0x3e, 0x44, 0xd6, 0xd5, 0x3d, 0x38, 0x0e, 0x05, 0x3e,
  0xf6, 0xa4, 0x19, 0x40, 0xc9, 0xd5, 0xfd, 0xbc, 0x49, 0x65, 0xdd, 0x3b,
  0xf9, 0x07, 0x86, 0x40, 0x9a, 0x8c, 0xa0, 0x3e, 0xa2, 0x9e, 0xc5, 0x3f,
  0x7f, 0x48, 0xdf, 0xbe, 0x06, 0xb7, 0x30, 0x40, 0x1d, 0xf8, 0x9d, 0xbe,
  0x90, 0x57, 0x4c, 0x3e, 0x54, 0x4c, 0x0f, 0xbe, 0x91, 0xec, 0x82, 0x3e,
  0x24, 0x25, 0x20, 0xbd, 0x73, 0x36, 0xd7, 0x3e, 0x17, 0x0c, 0x7a, 0x3f,
  0x8c, 0x5a, 0x60, 0x3f, 0x08, 0x15, 0x3c, 0xbe, 0x01, 0x39, 0x30, 0x3f,
  0xc0, 0x38, 0xbc, 0xbf, 0x21, 0x92, 0x9d, 0x3e, 0x8c, 0x15, 0xef, 0xbe,
  0xa3, 0x7e, 0xa1, 0xbd, 0x89, 0xe2, 0x0a, 0x3c, 0xbf, 0x29, 0xe2, 0xbd,
  0x20, 0x0d, 0xd8, 0xbd, 0x25, 0x5f, 0x98, 0x3e, 0xa4, 0x6b, 0x12, 0x3e,
  0xd3, 0xee, 0x91, 0xbd, 0xd2, 0xfb, 0x9d, 0xbd, 0x63, 0x13, 0x14, 0xbf,
  0x96, 0xfd, 0xa5, 0xbf, 0xa1, 0x7d, 0x36, 0x3f, 0x62, 0xa5, 0x57, 0x3e,
  0x43, 0x1a, 0x88, 0xbe, 0x58, 0xc5, 0x1b, 0xbf, 0x1c, 0xab, 0x15, 0xbe,
  0x29, 0x9f, 0x23, 0x3e, 0x77, 0x58, 0x20, 0xbe, 0x67, 0x18, 0x13, 0xbd,
  0x07, 0x9b, 0xae, 0xbb, 0x04, 0xe2, 0xac, 0xbe, 0x90, 0x5f, 0x26, 0xbd,
  0x28, 0x22, 0xad, 0xbb, 0xde, 0xef, 0x49, 0x3e, 0x72, 0x90, 0x0a, 0xbd,
  0xc4, 0xa7, 0xd1, 0x3f, 0x11, 0xe7, 0x0b, 0x3f, 0x21, 0x2d, 0x83, 0x3f,
  0x3b, 0x08, 0x6f, 0x3d, 0x4f, 0xcf, 0x1a, 0x3f, 0xd4, 0x93, 0x85, 0x3d,
  0x2f, 0x01, 0xd3, 0x3d, 0x43, 0xe3, 0x75, 0x3c, 0x8e, 0xb6, 0xd1, 0x3d,
  0xff, 0xad, 0xaa, 0x3d, 0x2d, 0xdf, 0xb6, 0xbe, 0x9d, 0x17, 0x09, 0x3f,
  0x3b, 0xb5, 0x67, 0xbd, 0xed, 0xe0, 0x09, 0x3d, 0xca, 0xb0, 0x96, 0x3d,
  0xc4, 0x76, 0x07, 0x3f, 0xb7, 0xd5, 0xce, 0xbc, 0x95, 0x43, 0xc7, 0x3d,
  0xdb, 0x2d, 0x35, 0xbf, 0x24, 0xf5, 0xfe, 0x3e, 0x62, 0x65, 0x14, 0xbf,
  0xba, 0x1c, 0x0a, 0x3f, 0x7c, 0xc3, 0x0a, 0xbe, 0x00, 0x9f, 0x27, 0xbf,
  0xf4, 0x52, 0xb3, 0x3e, 0x4e, 0xfe, 0xac, 0x3d, 0x5c, 0xfa, 0xd1, 0xbe,
  0xe6, 0x9a, 0x4b, 0x3d, 0x65, 0x39, 0x5b, 0xbf, 0xbc, 0x92, 0x8d, 0x3f,
  0xb3, 0xa9, 0x02, 0xbf, 0x76, 0x0d, 0x9c, 0xbe, 0xf4, 0x24, 0x13, 0xbd,
  0x3a, 0x7c, 0xd2, 0x3f, 0x4c, 0xd9, 0x84, 0xbe, 0x4e, 0xa2, 0x07, 0x3f,
  0x35, 0xb1, 0x01, 0x3e, 0x06, 0x02, 0x88, 0x3d, 0xa4, 0x5e, 0xd6, 0xbd,
  0xe6, 0xe6, 0xb1, 0x3d, 0x1b, 0x3e, 0x3b, 0x3e, 0x79, 0x5f, 0x73, 0xbe,
  0xe3, 0x5d, 0xab, 0x3d, 0x2a, 0xc0, 0x83, 0xbe, 0x07, 0x89, 0xa9, 0xbd,
  0xc3, 0xe9, 0x35, 0xbf, 0x8f, 0xc3, 0x08, 0xbe, 0x93, 0x52, 0x24, 0x3e,
  0x50, 0x17, 0x39, 0xbf, 0x20, 0x45, 0xc6, 0x3e, 0xf7, 0x05, 0x68, 0x3f,
  0xd6, 0xac, 0x28, 0x3d, 0xf6, 0x03, 0xef, 0x3d, 0x09, 0xc1, 0x85, 0x3e,
  0xd9, 0xa6, 0x60, 0xbf, 0x43, 0x48, 0x0b, 0xbe, 0x61, 0x6a, 0xbc, 0xbd,
  0x89, 0x51, 0xe4, 0xbe, 0xbc, 0x2b, 0xbc, 0xbe, 0x0e, 0x6b, 0xa7, 0x3c,
  0xab, 0x96, 0x75, 0xbe, 0x7f, 0xd2, 0xe1, 0x3d, 0x45, 0x4f, 0xab, 0x3e,
  0xe6, 0xb1, 0x31, 0x3f, 0xed, 0x6c, 0x98, 0xbb, 0x41, 0x50, 0x1d, 0x3e,
  0xf5, 0xa6, 0x4d, 0xbf, 0xca, 0x10, 0x85, 0x3d, 0xdd, 0x59, 0x93, 0xbe,
  0xa0, 0xeb, 0x95, 0xbe, 0x1b, 0x73, 0x04, 0xbe, 0x82, 0x48, 0xa4, 0xbe,
  0xd2, 0xaa, 0xb5, 0xbb, 0x42, 0x33, 0x64, 0xbf, 0xde, 0x99, 0xe1, 0x3e,
  0x4f, 0xd4, 0x4c, 0x3f, 0x71, 0x0b, 0x8f, 0x3e, 0x89, 0x2e, 0x16, 0xbf,
  0x87, 0x77, 0xbe, 0x3f, 0x70, 0x7e, 0x81, 0x3e, 0x01, 0x77, 0xf8, 0x3e,
  0x7f, 0xfb, 0xad, 0xbd, 0x96, 0x20, 0xde, 0xbd, 0x39, 0xb7, 0x82, 0x3d,
  0x8f, 0xca, 0x90, 0x3c, 0x3a, 0xf1, 0xff, 0xff, 0x04, 0x00, 0x00, 0x00,
  0x00, 0x0c, 0x00, 0x00, 0xa4, 0xf3, 0x82, 0x3b, 0x0a, 0x3c, 0x04, 0x3e,
  0xb1, 0x05, 0x3b, 0x3e, 0xfc, 0x02, 0xf9, 0x3d, 0x14, 0x48, 0xe1, 0xbc,
  0xa0, 0x65, 0x50, 0xbe, 0x55, 0xc5, 0x39, 0x3e, 0x53, 0x94, 0xfc, 0xbd,
  0x4f, 0xea, 0x5a, 0xbd, 0xc1, 0xb9, 0x99, 0x3d, 0x7d, 0x54, 0x06, 0xbe,
  0x6a, 0xe8, 0x25, 0x3e, 0x21, 0xda, 0x5a, 0x3e, 0xc0, 0x7c, 0x45, 0x3e,
  0xf7, 0xfb, 0xca, 0xbb, 0x1e, 0x8b, 0xfa, 0xbd, 0xce, 0xfc, 0x94, 0xbc,
  0x7a, 0xdc, 0xb8, 0x3d, 0x51, 0x85, 0x04, 0xbe, 0x7f, 0x9f, 0x57, 0xbd,
  0xb1, 0xfd, 0x9a, 0xbc, 0x8a, 0xf8, 0x85, 0xbe, 0x33, 0x8c, 0xfe, 0xbc,
  0x9e, 0xf2, 0xa1, 0x3c, 0xf3, 0x69, 0x60, 0x3d, 0x26, 0x03, 0x48, 0x3d,
  0x0f, 0xa8, 0x15, 0xbd, 0x87, 0x25, 0xe2, 0x3d, 0x81, 0x84, 0x9b, 0x3d,
  0xc1, 0x1f, 0x24, 0xbe, 0xf9, 0x07, 0x28, 0xbe, 0xf8, 0x0d, 0x86, 0xbd,
  0xd9, 0xc9, 0x38, 0x3e, 0x92, 0x43, 0x0d, 0x3d, 0x8b, 0x12, 0x44, 0xbe,
  0xc2, 0xa8, 0x06, 0x3e, 0xe3, 0x31, 0xb9, 0x3e, 0x87, 0x43, 0x05, 0xbd,
  0xa2, 0x14, 0x8a, 0xbe, 0xb2, 0x10, 0x0d, 0x3f, 0x76, 0x2a, 0x24, 0x3f,
  0x03, 0x73, 0x36, 0xbe, 0x0f, 0xb5, 0x19, 0x3c, 0x42, 0xc1, 0xd1, 0xbe,
  0x32, 0xaf, 0xb7, 0x3e, 0xad, 0x61, 0x98, 0x3e, 0x26, 0xd4, 0x32, 0xbe,
  0xc5, 0xf8, 0xce, 0xbd, 0x46, 0x7f, 0x3c, 0x3f, 0xe8, 0x02, 0x58, 0x3c,
  0x68, 0xa3, 0x2b, 0x3e, 0x1d, 0xf9, 0x40, 0x3d, 0xfb, 0xd7, 0x49, 0xbf,
  0xd6, 0xef, 0x23, 0xbe, 0x94, 0x0a, 0xd0, 0x3c, 0xa6, 0xf0, 0x13, 0xbe,
  0x6e, 0xf4, 0xf0, 0xbe, 0x0c, 0x2d, 0xfe, 0xbe, 0x2f, 0x2e, 0xe6, 0x3e,
  0x7a, 0x2a, 0x8d, 0x3e, 0x97, 0x2f, 0xf6, 0x3d, 0x6f, 0xc2, 0x3f, 0xbf,
  0x0f, 0x37, 0xfa, 0xbd, 0xad, 0x67, 0x46, 0xbe, 0xef, 0xa2, 0x42, 0x3e,
  0x4e, 0xa9, 0x47, 0xbe, 0x67, 0xf8, 0xc9, 0x3e, 0x64, 0x08, 0xe2, 0xbd,
  0x0a, 0x08, 0xdf, 0xbd, 0x8f, 0x5c, 0x5b, 0xbd, 0x6f, 0xbb, 0xa1, 0x3d,
  0x43, 0xae, 0x18, 0xbe, 0xfc, 0x3a, 0x88, 0x3e, 0xf0, 0xcb, 0x63, 0x3d,
  0x6d, 0xea, 0x43, 0xbe, 0x7b, 0x00, 0x72, 0x3d, 0x07, 0x3b, 0xe1, 0x3c,
  0xd7, 0x97, 0xa1, 0xbe, 0x48, 0x73, 0xee, 0xbd, 0x8b, 0x99, 0x5e, 0x3c,
  0x2f, 0x64, 0xf5, 0xbc, 0x40, 0xdc, 0x82, 0x3c, 0xce, 0x1d, 0x08, 0x3d,
  0xb8, 0xcd, 0xae, 0xbe, 0x73, 0x57, 0x7e, 0x3e, 0xc6, 0x02, 0x5b, 0x3e,
  0xd5, 0xcf, 0x32, 0xbd, 0x68, 0x70, 0x64, 0x3c, 0xb3, 0xc7, 0xc8, 0xbe,
  0x16, 0xe6, 0xa6, 0xbd, 0x77, 0x11, 0x92, 0x3e, 0x45, 0xd4, 0xb6, 0x3d,
  0xa4, 0xa0, 0xfa, 0xbe, 0x53, 0xe1, 0x1a, 0xbd, 0x13, 0x50, 0x94, 0x3c,
  0x82, 0xdc, 0xa6, 0x3e, 0xfa, 0x5c, 0x99, 0x3e, 0x70, 0xa9, 0x81, 0xbe,
  0xc3, 0x70, 0xa1, 0xbe, 0x3f, 0x30, 0xf5, 0x3e, 0x70, 0xcc, 0x0c, 0xbf,
  0xed, 0xb7, 0x20, 0x3e, 0xb3, 0xe3, 0xb5, 0xbe, 0xca, 0xf2, 0x13, 0xbd,
  0xc0, 0xf4, 0x0d, 0x3f, 0x96, 0x06, 0xa6, 0xbe, 0xb5, 0x49, 0x92, 0xbe,
  0x5e, 0xfa, 0x47, 0x3e, 0x29, 0x64, 0x43, 0x3e, 0x3e, 0x07, 0xf7, 0xbe,
  0x42, 0x46, 0x9a, 0x3e, 0xd4, 0x37, 0x38, 0xbe, 0xa1, 0x20, 0x59, 0x3f,
  0x01, 0x39, 0xba, 0xbe, 0x79, 0x9e, 0x3c, 0x3e, 0xe2, 0x72, 0xc6, 0xbe,
  0xaf, 0x73, 0x6a, 0x3e, 0x09, 0xa0, 0xee, 0xbd, 0x81, 0xc2, 0x81, 0x3e,
  0x06, 0x7b, 0xee, 0xbe, 0xe1, 0x84, 0x06, 0xbf, 0x18, 0x46, 0x44, 0x3c,
  0xdd, 0xd9, 0x2b, 0x3f, 0x8c, 0x10, 0x19, 0x3f, 0x40, 0x6d, 0x04, 0xbf,
  0x61, 0xbf, 0x0f, 0x3d, 0x12, 0x55, 0x20, 0xbe, 0x3e, 0x4f, 0x64, 0x3e,
  0x39, 0x23, 0x57, 0xbd, 0xa3, 0xae, 0x5d, 0x3d, 0x63, 0xcd, 0x8c, 0x3e,
  0x1a, 0x3e, 0x1e, 0xbe, 0x47, 0x22, 0xcd, 0xbe, 0x9e, 0x29, 0x3a, 0x3b,
  0x1b, 0x62, 0x34, 0xbe, 0x0d, 0xda, 0x16, 0x3e, 0x2d, 0x4c, 0xac, 0x3c,
  0x5d, 0x56, 0x0b, 0xbd, 0x6a, 0x0f, 0x82, 0x3d, 0x1d, 0x88, 0x13, 0xbd,
  0x7a, 0xae, 0x89, 0xbc, 0x30, 0xb1, 0xd9, 0x3e, 0x91, 0x28, 0x5f, 0x3e,
  0x40, 0x2a, 0xaf, 0x3d, 0x2e, 0x5b, 0x8a, 0xbd, 0xf8, 0xe5, 0x84, 0x3e,
  0xbd, 0xdb, 0x6e, 0xbd, 0x35, 0x3b, 0xbb, 0x3e, 0xfe, 0xc1, 0xc2, 0xbe,
  0x14, 0xc8, 0xed, 0x3d, 0x52, 0x85, 0x8d, 0xbd, 0x3b, 0x02, 0x6a, 0xbc,
  0xe2, 0xa9, 0x19, 0x3e, 0x91, 0x29, 0x4c, 0xbe, 0x7c, 0x38, 0x23, 0xbd,
  0x1b, 0xe5, 0x34, 0xbe, 0x36, 0x09, 0xd7, 0x3e, 0x3c, 0x01, 0x60, 0xbe,
  0xc7, 0xf2, 0x36, 0xbe, 0x52, 0xf6, 0xdf, 0xbe, 0xd4, 0x15, 0x45, 0xbe,
  0xc9, 0xed, 0x4d, 0x3e, 0x2b, 0x8b, 0x8d, 0x3e, 0xcf, 0x29, 0x69, 0x3d,
  0xdb, 0x79, 0x09, 0x3d, 0xfe, 0x07, 0x75, 0x3e, 0x05, 0x90, 0xd6, 0xbd,
  0x32, 0x37, 0x3c, 0xbc, 0xf2, 0xe1, 0x5e, 0xbe, 0x99, 0x83, 0x00, 0x3f,
  0xc5, 0x72, 0x0b, 0x3d, 0xf9, 0xe9, 0x55, 0x3d, 0x42, 0x1c, 0x96, 0x3d,
  0xf8, 0x3e, 0x02, 0x3e, 0xab, 0x49, 0xd2, 0xbd, 0x70, 0xcc, 0xa9, 0x3d,
  0x92, 0xe6, 0xb0, 0xbe, 0x2b, 0x20, 0xf0, 0xbd, 0x5b, 0xe5, 0xb7, 0xbe,
  0x32, 0x34, 0xdd, 0x3e, 0x60, 0x24, 0x49, 0x3e, 0xb7, 0x21, 0xd6, 0xbb,
  0xc0, 0xb1, 0x2c, 0xbd, 0xb2, 0x70, 0xdc, 0x3a, 0xf8, 0x67, 0x36, 0x3f,
  0xac, 0x6b, 0xae, 0x3e, 0x92, 0x4d, 0x2d, 0xbf, 0xdf, 0x2c, 0x9b, 0xbe,
  0x9c, 0x51, 0x6f, 0x3e, 0xf2, 0x09, 0x60, 0x3e, 0x51, 0x02, 0xcf, 0xbe,
  0x83, 0xdb, 0x80, 0xbe, 0x8a, 0x53, 0x81, 0x3e, 0xfc, 0x43, 0xfe, 0x3b,
  0xd5, 0x38, 0xa8, 0xbe, 0x63, 0x3c, 0x8c, 0x3c, 0x83, 0x89, 0x4b, 0x3d,
  0x9e, 0xe7, 0x44, 0xbe, 0xe0, 0x34, 0xd3, 0xbe, 0xd3, 0x37, 0x30, 0xbd,
  0x18, 0xe4, 0x0a, 0xbe, 0xe0, 0xfb, 0xc1, 0x3d, 0x8f, 0x03, 0xcd, 0x3e,
  0x2f, 0xe0, 0xa2, 0xbe, 0x75, 0x05, 0x08, 0x3f, 0xf2, 0xb3, 0x5a, 0x3d,
  0x5e, 0x99, 0x98, 0xbc, 0xc6, 0x40, 0x5d, 0x3e, 0xa3, 0x12, 0x36, 0x3c,
  0x80, 0x15, 0x83, 0x3d, 0x61, 0xb3, 0xec, 0xbe, 0x01, 0x07, 0x2d, 0x3f,
  0x0d, 0x55, 0x1f, 0xbf, 0x33, 0xa0, 0xc7, 0xbe, 0xd2, 0x1f, 0xd6, 0xbe,
  0x47, 0x1b, 0x08, 0xbe, 0xb2, 0x54, 0x29, 0xbf, 0xf5, 0xaa, 0x23, 0xbe,
  0xdc, 0x00, 0x0e, 0x3f, 0xf0, 0x74, 0xa6, 0xbe, 0x0f, 0x8e, 0x33, 0x3f,
  0x0d, 0x0f, 0xdf, 0x3d, 0x57, 0xf0, 0xc1, 0x3e, 0x85, 0xf0, 0x0c, 0xbe,
  0xc2, 0x8c, 0xb6, 0xbe, 0xb2, 0x74, 0xfe, 0xbd, 0xfa, 0x51, 0xd5, 0x3e,
  0x35, 0x11, 0x4b, 0x3e, 0xca, 0x21, 0x68, 0x3d, 0x6f, 0xec, 0x01, 0x3f,
  0x79, 0xde, 0xf4, 0x3e, 0xed, 0x2e, 0x65, 0xbe, 0x46, 0x46, 0xc0, 0xbe,
  0x3f, 0x79, 0xe4, 0xbe, 0x35, 0x9c, 0x8e, 0xbe, 0xcc, 0x0c, 0x5e, 0xbd,
  0x1c, 0x5f, 0x86, 0x3d, 0xa0, 0x28, 0x6d, 0xbe, 0x45, 0xa8, 0x8d, 0x3e,
  0xaf, 0x95, 0x01, 0xbf, 0xc2, 0x3e, 0x67, 0x3e, 0xa5, 0x96, 0x94, 0xbe,
  0x74, 0xbe, 0xeb, 0xbd, 0xae, 0x9d, 0xf6, 0xbd, 0x60, 0xd2, 0x58, 0xbe,
  0xd6, 0x71, 0x54, 0x3d, 0x38, 0x21, 0xe5, 0xbe, 0x05, 0x2e, 0x5a, 0xbe,
  0xa2, 0x1e, 0x58, 0xbe, 0x64, 0xb9, 0xdb, 0xbe, 0x64, 0xf2, 0xa2, 0x3e,
  0x3a, 0x34, 0x91, 0x3d, 0x03, 0x35, 0x23, 0xbf, 0x3d, 0xef, 0x5d, 0xbd,
  0x43, 0xbd, 0x81, 0xbe, 0x92, 0x0b, 0x38, 0x3f, 0x1f, 0x37, 0x43, 0xbe,
  0xa2, 0x6c, 0x5d, 0x3e, 0xb3, 0xc3, 0xa7, 0xbe, 0x82, 0xb7, 0x12, 0x3e,
  0xdf, 0xa0, 0x3a, 0xbe, 0x48, 0x59, 0x04, 0xbe, 0x4a, 0xd2, 0x35, 0xbe,
  0xfc, 0xee, 0xd0, 0x3d, 0xf3, 0x16, 0xb8, 0x3d, 0xb2, 0x46, 0xe4, 0x3e,
  0x0f, 0xec, 0x89, 0xbd, 0xd9, 0xb0, 0xf8, 0xbc, 0x59, 0xda, 0x4e, 0xbd,
  0xc0, 0x0b, 0x03, 0x3f, 0x01, 0xeb, 0x69, 0x3e, 0x82, 0x74, 0x85, 0x3e,
  0x59, 0x22, 0x26, 0x3e, 0xc8, 0xc1, 0x93, 0x3d, 0xb2, 0x8f, 0x96, 0x3e,
  0x6c, 0xfe, 0xe8, 0x3e, 0x84, 0xa9, 0x55, 0x3e, 0x4b, 0x71, 0x18, 0x3d,
  0x31, 0xa5, 0xdd, 0xbe, 0xf4, 0xed, 0x3a, 0xbe, 0x23, 0xfe, 0x80, 0x3f,
  0xd2, 0x76, 0x8d, 0xbe, 0x66, 0xad, 0xd7, 0x3d, 0x5f, 0xb7, 0xb7, 0x3e,
  0x4f, 0x68, 0xb8, 0x3e, 0x09, 0x5f, 0xa5, 0x3e, 0x31, 0x3f, 0x19, 0x3e,
  0xd7, 0xbb, 0x99, 0xbe, 0x0c, 0x7e, 0x85, 0xbc, 0xd4, 0xb0, 0x94, 0xbe,
  0x44, 0x4b, 0x0b, 0x3f, 0x12, 0xb4, 0x3d, 0x3e, 0x8c, 0xb3, 0xa6, 0xbe,
  0x01, 0x58, 0x09, 0xbe, 0x48, 0x25, 0x10, 0xbe, 0xa6, 0xe8, 0x0b, 0xbe,
  0x82, 0x46, 0x28, 0xbf, 0x93, 0x91, 0xad, 0xbe, 0x57, 0xd5, 0xb1, 0x3d,
  0x48, 0x54, 0xbd, 0xbe, 0x37, 0x90, 0x75, 0xbe, 0xef, 0x3a, 0x08, 0x3f,
  0xd3, 0xec, 0x04, 0x3d, 0xa3, 0x48, 0x1b, 0xbc, 0x3a, 0x5f, 0x78, 0xbf,
  0x10, 0xd0, 0x4e, 0x3f, 0x40, 0x7d, 0xc8, 0x3e, 0xd7, 0x9c, 0x2b, 0x3e,
  0xd3, 0x9a, 0x21, 0xbf, 0xa2, 0xee, 0x00, 0x3e, 0x99, 0xfb, 0xed, 0x3d,
  0x15, 0xb5, 0x07, 0x3f, 0x1b, 0xa6, 0x36, 0xbe, 0x86, 0x3e, 0x49, 0xbf,
  0x33, 0x62, 0x8a, 0x3d, 0x4e, 0xf1, 0xa8, 0xbe, 0xc7, 0xc3, 0xdf, 0x3e,
  0xab, 0xbd, 0x66, 0xbd, 0x84, 0xb7, 0x8f, 0x3e, 0x5b, 0x7d, 0x15, 0xbe,
  0xef, 0x76, 0x6a, 0x3e, 0x0a, 0xf4, 0x88, 0xbe, 0xfd, 0xd4, 0x9a, 0xbd,
  0xaf, 0xd3, 0x88, 0x3d, 0xe9, 0x16, 0xec, 0x3d, 0xb1, 0xb6, 0x1d, 0xbe,
  0xab, 0x03, 0x11, 0xbe, 0xf0, 0x45, 0xb5, 0x3c, 0x6c, 0x2f, 0x16, 0xbe,
  0x0c, 0x1f, 0x12, 0xbf, 0x55, 0x36, 0x82, 0x3d, 0x6e, 0x37, 0x3c, 0xbc,
  0x48, 0x1f, 0xbc, 0xbe, 0xa5, 0xc8, 0xe2, 0x3e, 0x10, 0x14, 0xc5, 0xbe,
  0x91, 0x2d, 0x86, 0x3e, 0xec, 0xe3, 0x79, 0x3e, 0x5d, 0xf2, 0x99, 0xbe,
  0x01, 0x5e, 0x9c, 0x3e, 0xd2, 0xcd, 0xa1, 0x3e, 0xe0, 0x0b, 0xda, 0x3e,
  0x13, 0x8f, 0x94, 0x3e, 0x1f, 0xe1, 0x06, 0x3f, 0xa3, 0x8d, 0x97, 0x3d,
  0xdb, 0x3d, 0x95, 0x3e, 0xb8, 0xfb, 0x7c, 0x3d, 0xec, 0xfb, 0x83, 0xbe,
  0x18, 0xfa, 0x8c, 0xbe, 0x17, 0x06, 0x48, 0x3f, 0x02, 0x2d, 0x66, 0x3d,
  0x55, 0x31, 0xb1, 0x3e, 0xc7, 0xed, 0x6a, 0xbf, 0xcf, 0x51, 0x26, 0x3e,
  0xba, 0x89, 0x6f, 0xbf, 0x86, 0x5c, 0x48, 0x3e, 0xf9, 0xe8, 0x3d, 0x3f,
  0xce, 0x26, 0xdf, 0x3e, 0xb1, 0x96, 0xbb, 0x3e, 0x0e, 0x5d, 0x25, 0xbf,
  0xd9, 0xde, 0x33, 0xbf, 0x8e, 0x0d, 0x96, 0xbe, 0xe9, 0x46, 0x6e, 0x3d,
  0x3f, 0xe2, 0x17, 0x3e, 0x3b, 0x50, 0x00, 0x3f, 0xcf, 0x3d, 0x4d, 0xbf,
  0x31, 0xb0, 0x99, 0xbe, 0x79, 0x9d, 0x61, 0xbd, 0x04, 0x7e, 0x4c, 0x3f,
  0x94, 0xb6, 0x9e, 0xbe, 0x82, 0x9e, 0xb0, 0xbe, 0xe0, 0x31, 0xc8, 0xbd,
  0x98, 0xdf, 0x07, 0x3f, 0x49, 0xad, 0xc8, 0x3e, 0xa3, 0x8c, 0x9a, 0x3e,
  0xd0, 0x37, 0x3f, 0x3f, 0x66, 0x7f, 0xbd, 0xbd, 0x19, 0x01, 0x9c, 0xbd,
  0x4e, 0x96, 0x1b, 0x3d, 0x14, 0x00, 0x1a, 0x3e, 0xd5, 0x12, 0xf3, 0xbe,
  0xdd, 0xd6, 0x3f, 0x3f, 0x00, 0xd6, 0x08, 0xbf, 0xc1, 0x9e, 0x64, 0x3f,
  0xd9, 0x63, 0xc9, 0xbd, 0x71, 0x84, 0x50, 0xbd, 0x8a, 0xd8, 0xdd, 0x3d,
  0x6d, 0xfb, 0x6d, 0xbe, 0xb9, 0xad, 0xcd, 0x3a, 0x77, 0x2c, 0x95, 0x3d,
  0x8e, 0x54, 0x46, 0xbe, 0xd1, 0xfd, 0x09, 0xbe, 0x92, 0x53, 0x52, 0x3e,
  0xa9, 0xf3, 0xcd, 0x3d, 0xc4, 0x99, 0xe2, 0x3e, 0xbd, 0x53, 0x1b, 0xbe,
  0xee, 0xcf, 0xe7, 0x3e, 0xd8, 0x80, 0x41, 0x3e, 0x38, 0x55, 0xd8, 0xbe,
  0x37, 0xf5, 0x91, 0x3d, 0x26, 0xee, 0xec, 0xbc, 0x23, 0x5c, 0x74, 0x3d,
  0x88, 0x5f, 0x35, 0xbc, 0x00, 0xa3, 0x92, 0xbe, 0x2f, 0x3f, 0x41, 0xbe,
  0xc4, 0xeb, 0x1c, 0x3f, 0xe0, 0x82, 0xa8, 0xbc, 0x17, 0x06, 0xb5, 0x3e,
  0xfc, 0xc4, 0xf8, 0xba, 0x02, 0x39, 0x9e, 0x3e, 0xa9, 0x49, 0x47, 0x3f,
  0x40, 0xb4, 0xe7, 0xbe, 0xb7, 0xd9, 0xe3, 0xbd, 0x3f, 0x33, 0x9b, 0xbe,
  0x8d, 0x76, 0xfe, 0xbd, 0x0c, 0x8b, 0x68, 0x3e, 0x9c, 0xc7, 0xe7, 0x3e,
  0x4e, 0xc0, 0xed, 0xbd, 0x56, 0xe5, 0xd6, 0x3e, 0xe8, 0x39, 0x52, 0x3f,
  0x07, 0x89, 0x5e, 0xbe, 0x20, 0x24, 0x0a, 0xbf, 0x24, 0xab, 0x7e, 0xbe,
  0xdc, 0xfe, 0x87, 0xbe, 0x9f, 0x67, 0x26, 0xbe, 0x08, 0xf3, 0x88, 0xbe,
  0x6b, 0x77, 0xe4, 0x3e, 0x24, 0xdd, 0x5c, 0x3f, 0xb6, 0xb5, 0x85, 0xbe,
  0x17, 0x59, 0xb1, 0xbe, 0x0c, 0xbb, 0x2d, 0x3e, 0x9e, 0xcf, 0x09, 0xbf,
  0x92, 0xbe, 0x1c, 0xbe, 0x49, 0xc9, 0x50, 0xbf, 0xa5, 0x9f, 0x1d, 0xbf,
  0x8c, 0xbc, 0x8e, 0x3d, 0xd8, 0x40, 0x2b, 0xbe, 0x73, 0xbf, 0xe2, 0x3e,
  0xd4, 0x54, 0x1d, 0x3d, 0xc5, 0x2c, 0x2f, 0xbc, 0x0a, 0xf6, 0x03, 0xbf,
  0x6a, 0xe5, 0x73, 0x3e, 0x2f, 0xf5, 0xdc, 0x3e, 0x06, 0x18, 0x5b, 0xbf,
  0x6f, 0x56, 0x44, 0xbe, 0x5d, 0x98, 0x4c, 0x3e, 0xcf, 0x8e, 0xa6, 0xbd,
  0x5f, 0x0c, 0x0b, 0xbd, 0x94, 0x1c, 0x11, 0x3e, 0xcb, 0x1e, 0x32, 0x3e,
  0x4c, 0x1b, 0x66, 0xbe, 0x4f, 0x6a, 0xe0, 0xbd, 0x29, 0x58, 0xfe, 0x3d,
  0xb8, 0xdb, 0xaf, 0xbe, 0x68, 0x4c, 0x8c, 0x3e, 0xb1, 0x20, 0x43, 0xbe,
  0xd0, 0xaa, 0xe5, 0xbd, 0x11, 0x01, 0x30, 0xbe, 0xba, 0x26, 0x0e, 0xbf,
  0x16, 0xfa, 0xa1, 0x3d, 0x46, 0xf2, 0x9a, 0xbe, 0x00, 0x91, 0x1d, 0x3e,
  0x0b, 0x2d, 0x05, 0xbe, 0xa7, 0xd0, 0xd4, 0x3d, 0x75, 0x13, 0x21, 0xbe,
  0x02, 0x32, 0x31, 0x3e, 0x6c, 0xbe, 0x60, 0x3d, 0x1c, 0x68, 0x88, 0x3e,
  0x2b, 0x5a, 0xea, 0xbe, 0xf9, 0x62, 0x5b, 0xbe, 0xc2, 0x34, 0x67, 0x3a,
  0xcc, 0xfe, 0xc6, 0x3d, 0xc7, 0xaf, 0x6c, 0x3e, 0x7d, 0x28, 0x2d, 0xbf,
  0x26, 0xa4, 0xc4, 0xbe, 0xa9, 0x74, 0x07, 0x3f, 0xe6, 0x8e, 0x18, 0xbe,
  0x90, 0xa6, 0xbc, 0xbe, 0xb8, 0xae, 0xfd, 0x3d, 0xe5, 0xbc, 0x1b, 0x3e,
  0x69, 0x00, 0x8b, 0x3e, 0xc3, 0x27, 0x1c, 0xbe, 0x58, 0x7a, 0x1e, 0xbf,
  0xe4, 0x8c, 0x81, 0xbe, 0xfe, 0xf1, 0x32, 0x3f, 0x96, 0x38, 0xa7, 0x3e,
  0xa9, 0x2d, 0xb1, 0xbe, 0xf1, 0x61, 0xd6, 0xbd, 0x82, 0x47, 0x0e, 0xbf,
  0x8a, 0xc1, 0xa5, 0xbf, 0x35, 0x49, 0x92, 0xbe, 0x22, 0x3c, 0x7e, 0x3c,
  0x82, 0xf3, 0x15, 0xbe, 0x38, 0x85, 0xbf, 0xbe, 0xd8, 0xc9, 0xdf, 0xbe,
  0xb7, 0xc4, 0xe4, 0xbd, 0x01, 0x4b, 0x9e, 0x3e, 0x06, 0x47, 0x45, 0xbf,
  0x1f, 0xb3, 0xe7, 0xbd, 0xd6, 0x90, 0x28, 0x3e, 0x26, 0x78, 0x4e, 0xbf,
  0x6f, 0xda, 0xa9, 0xbd, 0x8c, 0x62, 0x8b, 0x3d, 0x45, 0x48, 0x1b, 0xbd,
  0x4c, 0x63, 0x3a, 0xbe, 0x2c, 0x34, 0xd4, 0xbe, 0xc7, 0x68, 0xd5, 0x3d,
  0x02, 0x8a, 0x98, 0x3d, 0x33, 0x5f, 0x85, 0x3c, 0x40, 0x2a, 0x32, 0xbf,
  0x63, 0x07, 0x38, 0xbe, 0x20, 0x06, 0xf2, 0x3e, 0xb2, 0xf5, 0x07, 0x3f,
  0x95, 0xb6, 0x41, 0x3e, 0x4f, 0xac, 0xbd, 0xbe, 0xc9, 0x33, 0xee, 0x3b,
  0x51, 0x46, 0xf3, 0x3e, 0x6f, 0x66, 0x22, 0x3f, 0xdf, 0xe0, 0xbf, 0xbe,
  0xc4, 0x56, 0xc5, 0x3d, 0x66, 0x56, 0x63, 0x3e, 0x9b, 0x84, 0x62, 0x3f,
  0xf0, 0xdc, 0x1a, 0xbf, 0x7f, 0x86, 0x23, 0x3f, 0x52, 0x44, 0x83, 0xbe,
  0xca, 0x55, 0xf9, 0x3d, 0x99, 0xdc, 0x55, 0x3e, 0xe2, 0xb5, 0xe8, 0xbd,
  0x40, 0x8c, 0x10, 0xbe, 0xa8, 0x82, 0x3c, 0x3f, 0x41, 0xbc, 0x11, 0x3f,
  0x8e, 0x5f, 0x94, 0x3e, 0x19, 0xc6, 0xa5, 0x3e, 0xa1, 0x82, 0xbc, 0xbe,
  0xd2, 0x4d, 0x46, 0x3d, 0x56, 0xcc, 0x0f, 0x3d, 0x89, 0x3a, 0x85, 0x3e,
  0x01, 0x38, 0xff, 0xbe, 0xda, 0xd7, 0xf3, 0xbe, 0xd7, 0xce, 0x3b, 0x3f,
  0xf3, 0x80, 0xa4, 0x3e, 0x32, 0xc6, 0x77, 0x3e, 0xda, 0x11, 0x8c, 0x3d,
  0x4c, 0x30, 0x93, 0xbe, 0xc2, 0x1a, 0x15, 0xbe, 0x08, 0xa3, 0xd2, 0x3c,
  0x86, 0x37, 0x15, 0xbd, 0x19, 0x4c, 0xa4, 0x3a, 0xfc, 0x5f, 0x16, 0x3c,
  0xa9, 0x13, 0xb5, 0xbd, 0xe7, 0x22, 0x93, 0x3e, 0x9e, 0x37, 0x4a, 0x3c,
  0x80, 0xc8, 0x01, 0xbf, 0x85, 0x74, 0x88, 0xbe, 0x62, 0xaa, 0x4d, 0xbd,
  0x01, 0x6b, 0xa7, 0xbd, 0x75, 0x1b, 0xce, 0xbd, 0xa0, 0xa2, 0x97, 0x3e,
  0x5a, 0xc1, 0x97, 0xbe, 0xf6, 0x50, 0x1d, 0x3d, 0x52, 0xaf, 0x7e, 0x3c,
  0x88, 0xd6, 0x9c, 0x3d, 0x63, 0x8b, 0xdb, 0xbd, 0x51, 0xde, 0x45, 0x3e,
  0x34, 0x97, 0x0b, 0xbf, 0x07, 0xd5, 0x37, 0x3e, 0x16, 0xdd, 0xe6, 0xbc,
  0xa0, 0xfd, 0x43, 0x3e, 0xf3, 0x66, 0x06, 0x3e, 0xbc, 0x47, 0x14, 0xbf,
  0x14, 0x7a, 0x97, 0x3d, 0x4d, 0x5b, 0xd5, 0x3e, 0x13, 0xd7, 0x93, 0xbc,
  0xbb, 0x6a, 0x07, 0xbf, 0xee, 0x54, 0xcb, 0x3e, 0x98, 0xf9, 0x2f, 0xbd,
  0x4b, 0xfa, 0x95, 0x3e, 0x88, 0x80, 0x53, 0xbe, 0x93, 0xcb, 0x43, 0xbc,
  0x55, 0xc3, 0x02, 0x3d, 0xc2, 0xd8, 0x62, 0x3d, 0x1a, 0x1d, 0x1b, 0x3e,
  0x8f, 0x71, 0xe2, 0x3e, 0xd3, 0x8d, 0x2c, 0xbe, 0x70, 0x1a, 0xe7, 0xbb,
  0xb7, 0x96, 0xb6, 0xbd, 0x0c, 0xd8, 0x0e, 0x3e, 0xd0, 0xa8, 0xae, 0x3e,
  0x10, 0x41, 0xb2, 0x3e, 0x32, 0x46, 0x4f, 0x3d, 0xeb, 0xa5, 0x5d, 0xba,
  0xfd, 0xed, 0xfe, 0x3c, 0x57, 0x76, 0x9e, 0x3e, 0xac, 0xed, 0x4a, 0xbd,
  0x2b, 0x1b, 0xd4, 0xbd, 0x0e, 0xd4, 0xa5, 0x3d, 0xef, 0xb2, 0x15, 0xbf,
  0x72, 0x36, 0xff, 0x3e, 0x51, 0xe4, 0xc0, 0xbd, 0x99, 0xe7, 0x5d, 0xbd,
  0x35, 0x9d, 0xff, 0xbd, 0x2e, 0x44, 0x14, 0xbf, 0x7d, 0x30, 0xb4, 0x3e,
  0xc3, 0xb4, 0x99, 0x3e, 0x71, 0xb9, 0xa0, 0xbe, 0x72, 0x62, 0x0b, 0xbf,
  0xc7, 0x1c, 0x6e, 0x3e, 0x97, 0x0f, 0x13, 0x3e, 0x09, 0x85, 0x18, 0x3f,
  0xe9, 0x02, 0xb6, 0xbc, 0x2c, 0xfd, 0xc9, 0xbd, 0x95, 0x86, 0xac, 0xbd,
  0x9d, 0x35, 0x76, 0xbd, 0x7b, 0x1c, 0x04, 0xbe, 0x04, 0xe6, 0x64, 0x3e,
  0x30, 0x60, 0xfc, 0x3d, 0xbe, 0x47, 0x29, 0xbe, 0xef, 0xc2, 0x87, 0x3e,
  0x98, 0xce, 0x19, 0x3e, 0x6b, 0x5d, 0x99, 0xbe, 0x23, 0xd6, 0xe9, 0x3d,
  0x93, 0xbe, 0x4a, 0x3b, 0x5a, 0x7f, 0x9f, 0xbe, 0x7d, 0x66, 0x7a, 0x3d,
  0x5e, 0x37, 0xad, 0x3e, 0x3b, 0xb4, 0xb6, 0xbc, 0xa8, 0x8c, 0x84, 0xbe,
  0xb4, 0x02, 0x56, 0xbe, 0xa6, 0x75, 0xf8, 0xbe, 0xdf, 0xbe, 0xe9, 0x3e,
  0xe7, 0x64, 0x66, 0x3e, 0x0b, 0x25, 0x0b, 0xbe, 0x7b, 0xf2, 0xf5, 0xbd,
  0xa1, 0xa1, 0x8e, 0xbd, 0xab, 0x45, 0x08, 0x3f, 0x0d, 0x10, 0xea, 0xbd,
  0x53, 0x89, 0x81, 0x3e, 0x0c, 0x63, 0x11, 0xbf, 0xd6, 0x0c, 0x06, 0xbe,
  0x18, 0x9f, 0x06, 0xbd, 0x19, 0x4a, 0xf2, 0x3e, 0x37, 0x30, 0x9f, 0xbd,
  0x3f, 0x73, 0xaa, 0xbd, 0xcb, 0x07, 0x1c, 0xbe, 0x87, 0xeb, 0x8f, 0x3d,
  0xb8, 0xd3, 0xb8, 0x3c, 0x06, 0xe8, 0xb9, 0xbe, 0x29, 0x9e, 0x0d, 0xbe,
  0x00, 0x5d, 0x04, 0x3e, 0xbc, 0x5d, 0x6e, 0x3e, 0xb0, 0x22, 0x4e, 0x3f,
  0xcb, 0x4a, 0x58, 0x3e, 0x3d, 0x82, 0xab, 0x3d, 0xbb, 0x47, 0x62, 0x3d,
  0x7c, 0x65, 0xc9, 0x3d, 0x7e, 0x83, 0x67, 0xbe, 0x2d, 0x16, 0x04, 0xbf,
  0x81, 0x40, 0x0b, 0x3f, 0x58, 0x4a, 0xde, 0x3b, 0x7f, 0xdd, 0x7c, 0xbe,
  0x4d, 0x27, 0xa5, 0x3e, 0x6d, 0x7d, 0x58, 0x3e, 0x84, 0x48, 0x48, 0xbe,
  0x53, 0xee, 0xa0, 0xbe, 0x50, 0x0e, 0x7a, 0xbd, 0x3e, 0x1b, 0xb2, 0x3e,
  0x28, 0xe6, 0x04, 0x3f, 0xec, 0x25, 0x76, 0xbf, 0x84, 0xf3, 0x21, 0xbd,
  0x69, 0xad, 0x92, 0x3e, 0x41, 0x70, 0x18, 0x3d, 0xab, 0x2e, 0x4a, 0x3d,
  0x08, 0x45, 0x8b, 0x3d, 0xce, 0x20, 0x02, 0xbe, 0x4c, 0x90, 0x85, 0x3e,
  0x92, 0x45, 0x1b, 0x3f, 0xb1, 0x6f, 0x64, 0xbe, 0x42, 0xd7, 0x95, 0xbe,
  0xee, 0x2c, 0xd8, 0xbe, 0x1e, 0xdc, 0xba, 0x3e, 0xb4, 0x13, 0x0e, 0xbd,
  0xb7, 0x1a, 0x12, 0x3f, 0xd6, 0xc9, 0x7f, 0x3d, 0xcc, 0x32, 0xb5, 0xbd,
  0xea, 0x7b, 0xd8, 0xbd, 0x54, 0x5b, 0xbe, 0xbe, 0x50, 0xa4, 0x08, 0x3e,
  0xfd, 0xfb, 0x6d, 0x3e, 0xfb, 0xec, 0x0e, 0x3f, 0x91, 0x78, 0x80, 0xbe,
  0x81, 0x93, 0xe2, 0xbc, 0x72, 0x4b, 0xec, 0xbe, 0x6a, 0x2c, 0x83, 0x3b,
  0x75, 0xa3, 0x07, 0x3e, 0xf9, 0x8c, 0x25, 0xbe, 0xa1, 0x7c, 0xfd, 0xbd,
  0x53, 0x6c, 0x3b, 0xbe, 0x64, 0xa0, 0x04, 0xbe, 0xc5, 0x0e, 0x75, 0x3a,
  0xaf, 0xb8, 0x9a, 0xbe, 0xca, 0x20, 0x8b, 0x3b, 0x81, 0xbb, 0xcb, 0xbe,
  0x0e, 0xd1, 0x65, 0x3e, 0x63, 0x36, 0x41, 0xbf, 0x24, 0xe9, 0x78, 0xbe,
  0x44, 0x11, 0xb7, 0xbe, 0x4c, 0xb9, 0xfb, 0x3e, 0xce, 0x64, 0x0b, 0xbe,
  0xb7, 0xcd, 0x0e, 0xbf, 0x0e, 0xb4, 0x3f, 0x3d, 0x83, 0x5d, 0x13, 0x3f,
  0x82, 0xf0, 0x92, 0x3d, 0xc0, 0x7d, 0xa9, 0xbe, 0x4d, 0x17, 0xd0, 0xbe,
  0xf0, 0x48, 0xbf, 0x3e, 0x0e, 0x2f, 0x58, 0xbe, 0x5a, 0x05, 0xed, 0x3c,
  0xe4, 0x04, 0x8d, 0x3e, 0x02, 0x78, 0x24, 0x3e, 0xea, 0x36, 0x2d, 0x3f,
  0x81, 0xdd, 0x90, 0x3d, 0x31, 0xc7, 0xb4, 0x3d, 0x24, 0xb9, 0xa9, 0x3d,
  0x1e, 0xb7, 0x7d, 0xbe, 0x7f, 0x0d, 0x09, 0x3f, 0x0e, 0x04, 0xb2, 0xbe,
  0xff, 0xda, 0xcd, 0xbc, 0x75, 0x27, 0x14, 0x3e, 0x2c, 0x10, 0x95, 0x3e,
  0x86, 0x82, 0x05, 0x3f, 0x70, 0xa9, 0x5c, 0xbe, 0x7e, 0x20, 0xb6, 0xbe,
  0x51, 0x7a, 0xa8, 0x3e, 0x27, 0xf9, 0xc0, 0x3e, 0x0d, 0x02, 0x99, 0xbd,
  0x2b, 0x49, 0x2c, 0x3e, 0xee, 0xff, 0xca, 0xbe, 0xc3, 0x8e, 0x01, 0x3e,
  0xbd, 0xfa, 0xc1, 0xbe, 0xda, 0xe8, 0xf7, 0x3e, 0x51, 0x1a, 0x2c, 0x3f,
  0x51, 0xe8, 0x07, 0x3f, 0xea, 0xf1, 0x1d, 0xbf, 0xdf, 0x4e, 0x06, 0x3f,
  0x4f, 0x68, 0x5f, 0xbe, 0x16, 0x4f, 0x70, 0xbf, 0xea, 0xe7, 0xf6, 0x3c,
  0xcb, 0x03, 0x81, 0x3d, 0x35, 0x0b, 0x8d, 0xbd, 0x0f, 0x6d, 0x1a, 0xbe,
  0xa5, 0xd7, 0x5e, 0xbe, 0xd7, 0xb1, 0x37, 0xbf, 0xc5, 0x43, 0xa4, 0x3c,
  0x83, 0xb4, 0x83, 0xbf, 0x3b, 0x3a, 0x1e, 0xbf, 0x32, 0x9f, 0x9b, 0x3e,
  0xa8, 0x0f, 0xf6, 0xbe, 0x7f, 0x7e, 0x97, 0x3e, 0xf5, 0x5e, 0x32, 0xbc,
  0x74, 0x7c, 0xd6, 0x3c, 0x1b, 0x27, 0x1e, 0xbf, 0x2e, 0x82, 0x1f, 0x3e,
  0xf6, 0xde, 0x69, 0x3e, 0x8d, 0xf6, 0xdb, 0xbe, 0x2b, 0x68, 0x24, 0xbf,
  0x15, 0xcd, 0x0a, 0xbf, 0xe5, 0x9d, 0x77, 0x3e, 0xcc, 0x8c, 0xd7, 0x3b,
  0x51, 0xd4, 0xc4, 0x3e, 0x46, 0xfd, 0xff, 0xff, 0x04, 0x00, 0x00, 0x00,
  0x40, 0x02, 0x00, 0x00, 0x7b, 0x49, 0x5f, 0xbc, 0x42, 0xa2, 0xaf, 0xbd,
  0x9a, 0x0d, 0x9d, 0x3e, 0xa9, 0x8b, 0xfd, 0x3d, 0xe9, 0xad, 0x95, 0xbc,
  0x5b, 0xfa, 0xc1, 0x3d, 0x0e, 0xaf, 0xce, 0x3d, 0xf4, 0x86, 0xc3, 0xbd,
  0xa3, 0xb0, 0x1d, 0xbd, 0x22, 0xc4, 0x9f, 0x3e, 0x1d, 0xd1, 0x87, 0x3e,
  0xff, 0xa7, 0x9b, 0x3d, 0x9f, 0xb0, 0xa2, 0xbe, 0xb2, 0x18, 0x6f, 0xbe,
  0xb2, 0x72, 0x90, 0xbe, 0x57, 0x20, 0xe0, 0x3d, 0xcb, 0x6a, 0xf2, 0x3c,
  0x8a, 0xcd, 0xd5, 0x3c, 0x58, 0x90, 0x3d, 0xbd, 0x32, 0x27, 0xfe, 0x3e,
  0xe0, 0x42, 0x90, 0x3e, 0x56, 0x3a, 0xb9, 0x3e, 0xb1, 0x1b, 0xfc, 0x3c,
  0x0f, 0x9e, 0x08, 0x3b, 0x80, 0xf8, 0x09, 0xbe, 0xf4, 0x70, 0xb6, 0x3d,
  0x1e, 0xe4, 0x9c, 0xbc, 0x0c, 0x03, 0x49, 0xbe, 0x2e, 0x35, 0x1c, 0x3e,
  0x2e, 0x5c, 0xfb, 0xbd, 0x8e, 0x0b, 0x2b, 0xbc, 0x80, 0xf0, 0x92, 0x3d,
  0x02, 0x34, 0x80, 0xbd, 0x78, 0x49, 0x91, 0x3e, 0x97, 0xe0, 0xd4, 0xbc,
  0xda, 0x3a, 0x3e, 0x3e, 0xf3, 0x84, 0x25, 0x3e, 0x4f, 0x95, 0xc6, 0xbd,
  0x38, 0xd9, 0x88, 0xbc, 0xfd, 0x4e, 0xc4, 0x3c, 0xde, 0xd1, 0x59, 0xbe,
  0x43, 0x59, 0xc1, 0x39, 0xa3, 0x14, 0x10, 0xbe, 0x54, 0x35, 0xcf, 0x3e,
  0xb2, 0xc6, 0x32, 0x3e, 0x0f, 0x14, 0x25, 0xbe, 0xa7, 0x63, 0x3b, 0xbd,
  0x49, 0xc3, 0x1d, 0xbe, 0xb1, 0x4a, 0x13, 0x3d, 0x24, 0x6e, 0x08, 0xbf,
  0x40, 0x23, 0xfe, 0xbd, 0x76, 0x1e, 0x19, 0xbf, 0xe6, 0x86, 0xf6, 0xbb,
  0x55, 0xba, 0x90, 0x3e, 0xff, 0xf5, 0x63, 0x3d, 0xe6, 0xd1, 0x11, 0x3f,
  0x01, 0x4d, 0xf9, 0xbc, 0x5c, 0x30, 0x41, 0x3f, 0xa6, 0x17, 0x86, 0xbe,
  0xbc, 0xdf, 0xd9, 0xbe, 0xf8, 0xb6, 0x56, 0xbe, 0x71, 0xb7, 0xda, 0x3e,
  0xa0, 0x28, 0xab, 0x3e, 0x15, 0x8b, 0x56, 0x3f, 0xb8, 0x77, 0x72, 0xbf,
  0x67, 0x6c, 0x41, 0x3e, 0xd4, 0xdc, 0x86, 0xbc, 0xeb, 0xf9, 0xc9, 0xbe,
  0x5e, 0xcc, 0x52, 0xbe, 0x4a, 0x40, 0xaf, 0xbe, 0x41, 0x97, 0x53, 0x3f,
  0x51, 0xae, 0x2e, 0x3f, 0x53, 0xfc, 0x8a, 0xb9, 0xe0, 0x58, 0x85, 0xbe,
  0x23, 0x4a, 0x1f, 0x3b, 0xee, 0x86, 0x69, 0x3e, 0x83, 0x69, 0x95, 0xbc,
  0x44, 0x1b, 0xd9, 0x3c, 0xb5, 0x81, 0x08, 0xbf, 0x76, 0x4b, 0xc5, 0x3c,
  0x61, 0x6a, 0xe1, 0xbd, 0xc9, 0x67, 0x2c, 0xbf, 0xaa, 0x4f, 0xae, 0xbe,
  0x47, 0x88, 0x53, 0xbd, 0x28, 0xfd, 0x54, 0x3f, 0xe3, 0xe3, 0x72, 0x3e,
  0xea, 0x0f, 0x98, 0xbd, 0xf4, 0x5b, 0x7a, 0x3e, 0x7d, 0x7c, 0x95, 0xbe,
  0x68, 0x61, 0x81, 0x3d, 0x5b, 0x91, 0xbf, 0x3e, 0xfb, 0x66, 0x43, 0x3e,
  0x45, 0xff, 0x34, 0x3e, 0xf3, 0xf0, 0x0d, 0xbc, 0x14, 0x02, 0x41, 0xbe,
  0x77, 0x18, 0x2d, 0x3e, 0x7c, 0x67, 0x32, 0x3b, 0xdc, 0x83, 0x51, 0xbe,
  0x6d, 0x71, 0x7a, 0xbc, 0xe7, 0x4d, 0xc3, 0xbe, 0x14, 0x1a, 0xe3, 0x3c,
  0x64, 0xf8, 0xea, 0x3e, 0x6d, 0x11, 0xad, 0xbd, 0x5f, 0xac, 0x2a, 0xbe,
  0xe5, 0xf3, 0x99, 0x3e, 0x56, 0x06, 0x00, 0xbe, 0xce, 0xc6, 0xbd, 0x3e,
  0xd1, 0x56, 0x1a, 0x3e, 0x8e, 0x92, 0x4c, 0x3e, 0xad, 0x50, 0x25, 0x3e,
  0xc4, 0xff, 0xc7, 0xbe, 0x7e, 0xba, 0xed, 0xbe, 0xb9, 0xd7, 0x8a, 0xbe,
  0x2a, 0xdf, 0xf7, 0xbd, 0xd7, 0x5f, 0x85, 0xbe, 0x3b, 0x9a, 0x4c, 0xbd,
  0x7a, 0x14, 0x0b, 0x3f, 0x20, 0xf8, 0x2b, 0x3c, 0xbe, 0x7a, 0x02, 0x3f,
  0x40, 0xc3, 0x00, 0xbe, 0x2b, 0xa4, 0x44, 0xbc, 0xb5, 0x62, 0xad, 0xbd,
  0xee, 0xc1, 0xe9, 0x3b, 0xc8, 0x80, 0x16, 0xbf, 0xd2, 0xb0, 0xa5, 0xbd,
  0xfd, 0xa3, 0x72, 0xbe, 0xdf, 0xf9, 0x6e, 0xbd, 0xa9, 0xc8, 0x3a, 0x3e,
  0x50, 0x3e, 0xc4, 0xbd, 0x23, 0xbe, 0xc2, 0xbe, 0x5c, 0xf6, 0x31, 0x3d,
  0x7b, 0x9b, 0xbc, 0xbc, 0xc1, 0xb2, 0x05, 0xbd, 0x6c, 0x16, 0x30, 0xbe,
  0x07, 0x4e, 0x98, 0xbe, 0x3d, 0xcc, 0x98, 0x3d, 0x3e, 0xbc, 0xd6, 0x3e,
  0x4d, 0x69, 0xe3, 0xbb, 0xa2, 0x3a, 0xc0, 0x3d, 0xf5, 0xd9, 0x0d, 0xbd,
  0xee, 0x65, 0x1b, 0x3c, 0xd3, 0x9d, 0xd1, 0xbb, 0x4d, 0x63, 0x27, 0x3d,
  0x9f, 0x24, 0x8a, 0x3e, 0x92, 0xff, 0xff, 0xff, 0x04, 0x00, 0x00, 0x00,
  0x60, 0x00, 0x00, 0x00, 0xe9, 0x99, 0x09, 0xbd, 0x0c, 0x70, 0x28, 0x3e,
  0x84, 0xfd, 0xbf, 0x3d, 0x3b, 0xc8, 0xba, 0xbd, 0x8f, 0x8c, 0x65, 0xbb,
  0x88, 0x6d, 0x91, 0xbc, 0x91, 0x6d, 0x96, 0xbd, 0x05, 0x44, 0xa2, 0x3d,
  0x82, 0x49, 0x61, 0x3d, 0xa0, 0x0f, 0xea, 0x3d, 0xcf, 0x2c, 0x32, 0xbe,
  0xc8, 0xec, 0x0a, 0xbe, 0x9e, 0x4c, 0xbc, 0xbd, 0x3f, 0x2c, 0xa8, 0xbc,
  0x2c, 0x55, 0x4c, 0x3d, 0x80, 0xbe, 0x0b, 0xbc, 0x8d, 0x00, 0xbb, 0xbd,
  0x50, 0x8d, 0xc1, 0xbc, 0x92, 0xcd, 0x6c, 0xbd, 0x52, 0xae, 0x66, 0xbd,
  0xa2, 0x86, 0x9b, 0x3d, 0xc5, 0xbf, 0x98, 0xbd, 0x6d, 0xc2, 0x75, 0x3d,
  0x05, 0x96, 0xdf, 0x3c, 0x00, 0x00, 0x06, 0x00, 0x08, 0x00, 0x04, 0x00,
  0x06, 0x00, 0x00, 0x00, 0x04, 0x00, 0x00, 0x00, 0x18, 0x00, 0x00, 0x00,
  0x7c, 0xda, 0x7b, 0xbd, 0x21, 0xc5, 0x41, 0x3d, 0x9d, 0x49, 0x4b, 0x3b,
  0x64, 0x55, 0x0e, 0xbe, 0xef, 0xbb, 0x8a, 0xbc, 0x62, 0xf5, 0x2c, 0xbd,
  0xf8, 0xf9, 0xff, 0xff, 0xfc, 0xf9, 0xff, 0xff, 0x0f, 0x00, 0x00, 0x00,
  0x4d, 0x4c, 0x49, 0x52, 0x20, 0x43, 0x6f, 0x6e, 0x76, 0x65, 0x72, 0x74,
  0x65, 0x64, 0x2e, 0x00, 0x01, 0x00, 0x00, 0x00, 0x14, 0x00, 0x00, 0x00,
  0x00, 0x00, 0x0e, 0x00, 0x18, 0x00, 0x14, 0x00, 0x10, 0x00, 0x0c, 0x00,
  0x08, 0x00, 0x04, 0x00, 0x0e, 0x00, 0x00, 0x00, 0x14, 0x00, 0x00, 0x00,
  0x1c, 0x00, 0x00, 0x00, 0x58, 0x01, 0x00, 0x00, 0x5c, 0x01, 0x00, 0x00,
  0x60, 0x01, 0x00, 0x00, 0x04, 0x00, 0x00, 0x00, 0x6d, 0x61, 0x69, 0x6e,
  0x00, 0x00, 0x00, 0x00, 0x06, 0x00, 0x00, 0x00, 0xfc, 0x00, 0x00, 0x00,
  0xc8, 0x00, 0x00, 0x00, 0x84, 0x00, 0x00, 0x00, 0x60, 0x00, 0x00, 0x00,
  0x28, 0x00, 0x00, 0x00, 0x04, 0x00, 0x00, 0x00, 0x56, 0xff, 0xff, 0xff,
  0x0c, 0x00, 0x00, 0x00, 0x10, 0x00, 0x00, 0x00, 0x01, 0x00, 0x00, 0x00,
  0x01, 0x00, 0x00, 0x00, 0x0c, 0x00, 0x00, 0x00, 0x01, 0x00, 0x00, 0x00,
  0x0b, 0x00, 0x00, 0x00, 0x4a, 0xff, 0xff, 0xff, 0x10, 0x00, 0x00, 0x00,
  0x00, 0x00, 0x00, 0x08, 0x10, 0x00, 0x00, 0x00, 0x14, 0x00, 0x00, 0x00,
  0x3a, 0xff, 0xff, 0xff, 0x00, 0x00, 0x00, 0x01, 0x01, 0x00, 0x00, 0x00,
  0x0b, 0x00, 0x00, 0x00, 0x03, 0x00, 0x00, 0x00, 0x0a, 0x00, 0x00, 0x00,
  0x03, 0x00, 0x00, 0x00, 0x01, 0x00, 0x00, 0x00, 0xaa, 0xff, 0xff, 0xff,
  0x0c, 0x00, 0x00, 0x00, 0x10, 0x00, 0x00, 0x00, 0x01, 0x00, 0x00, 0x00,
  0x01, 0x00, 0x00, 0x00, 0x0a, 0x00, 0x00, 0x00, 0x01, 0x00, 0x00, 0x00,
  0x09, 0x00, 0x00, 0x00, 0x9e, 0xff, 0xff, 0xff, 0x10, 0x00, 0x00, 0x00,
  0x00, 0x00, 0x00, 0x08, 0x10, 0x00, 0x00, 0x00, 0x14, 0x00, 0x00, 0x00,
  0x8e, 0xff, 0xff, 0xff, 0x00, 0x00, 0x00, 0x01, 0x01, 0x00, 0x00, 0x00,
  0x09, 0x00, 0x00, 0x00, 0x03, 0x00, 0x00, 0x00, 0x08, 0x00, 0x00, 0x00,
  0x04, 0x00, 0x00, 0x00, 0x02, 0x00, 0x00, 0x00, 0x00, 0x00, 0x0a, 0x00,
  0x10, 0x00, 0x0c, 0x00, 0x08, 0x00, 0x04, 0x00, 0x0a, 0x00, 0x00, 0x00,
  0x0c, 0x00, 0x00, 0x00, 0x10, 0x00, 0x00, 0x00, 0x01, 0x00, 0x00, 0x00,
  0x01, 0x00, 0x00, 0x00, 0x08, 0x00, 0x00, 0x00, 0x01, 0x00, 0x00, 0x00,
  0x07, 0x00, 0x00, 0x00, 0x00, 0x00, 0x0e, 0x00, 0x16, 0x00, 0x00, 0x00,
  0x10, 0x00, 0x0c, 0x00, 0x0b, 0x00, 0x04, 0x00, 0x0e, 0x00, 0x00, 0x00,
  0x1c, 0x00, 0x00, 0x00, 0x00, 0x00, 0x00, 0x08, 0x1c, 0x00, 0x00, 0x00,
  0x20, 0x00, 0x00, 0x00, 0x00, 0x00, 0x0a, 0x00, 0x08, 0x00, 0x00, 0x00,
  0x00, 0x00, 0x07, 0x00, 0x0a, 0x00, 0x00, 0x00, 0x00, 0x00, 0x00, 0x01,
  0x01, 0x00, 0x00, 0x00, 0x07, 0x00, 0x00, 0x00, 0x03, 0x00, 0x00, 0x00,
  0x00, 0x00, 0x00, 0x00, 0x05, 0x00, 0x00, 0x00, 0x06, 0x00, 0x00, 0x00,
  0x01, 0x00, 0x00, 0x00, 0x0c, 0x00, 0x00, 0x00, 0x01, 0x00, 0x00, 0x00,
  0x00, 0x00, 0x00, 0x00, 0x0d, 0x00, 0x00, 0x00, 0x44, 0x04, 0x00, 0x00,
  0xf0, 0x03, 0x00, 0x00, 0xb4, 0x03, 0x00, 0x00, 0x74, 0x03, 0x00, 0x00,
  0x34, 0x03, 0x00, 0x00, 0xcc, 0x02, 0x00, 0x00, 0x64, 0x02, 0x00, 0x00,
  0xf8, 0x01, 0x00, 0x00, 0x8c, 0x01, 0x00, 0x00, 0x24, 0x01, 0x00, 0x00,
  0xb8, 0x00, 0x00, 0x00, 0x50, 0x00, 0x00, 0x00, 0x04, 0x00, 0x00, 0x00,
  0x06, 0xfc, 0xff, 0xff, 0x00, 0x00, 0x00, 0x01, 0x10, 0x00, 0x00, 0x00,
  0x10, 0x00, 0x00, 0x00, 0x0d, 0x00, 0x00, 0x00, 0x28, 0x00, 0x00, 0x00,
  0xf0, 0xfb, 0xff, 0xff, 0x19, 0x00, 0x00, 0x00, 0x53, 0x74, 0x61, 0x74,
  0x65, 0x66, 0x75, 0x6c, 0x50, 0x61, 0x72, 0x74, 0x69, 0x74, 0x69, 0x6f,
  0x6e, 0x65, 0x64, 0x43, 0x61, 0x6c, 0x6c, 0x3a, 0x30, 0x00, 0x00, 0x00,
  0x02, 0x00, 0x00, 0x00, 0x01, 0x00, 0x00, 0x00, 0x06, 0x00, 0x00, 0x00,
  0x4e, 0xfc, 0xff, 0xff, 0x00, 0x00, 0x00, 0x01, 0x10, 0x00, 0x00, 0x00,
  0x10, 0x00, 0x00, 0x00, 0x0c, 0x00, 0x00, 0x00, 0x44, 0x00, 0x00, 0x00,
  0x38, 0xfc, 0xff, 0xff, 0x37, 0x00, 0x00, 0x00, 0x5f, 0x5f, 0x6d, 0x61,
  0x69, 0x6e, 0x5f, 0x5f, 0x2e, 0x43, 0x6f, 0x6e, 0x74, 0x72, 0x6f, 0x6c,
  0x4d, 0x6f, 0x64, 0x65, 0x6c, 0x2f, 0x74, 0x6f, 0x72, 0x63, 0x68, 0x2e,
  0x6e, 0x6e, 0x2e, 0x6d, 0x6f, 0x64, 0x75, 0x6c, 0x65, 0x73, 0x2e, 0x6c,
  0x69, 0x6e, 0x65, 0x61, 0x72, 0x2e, 0x4c, 0x69, 0x6e, 0x65, 0x61, 0x72,
  0x5f, 0x34, 0x3b, 0x00, 0x02, 0x00, 0x00, 0x00, 0x01, 0x00, 0x00, 0x00,
  0x06, 0x00, 0x00, 0x00, 0xb2, 0xfc, 0xff, 0xff, 0x00, 0x00, 0x00, 0x01,
  0x10, 0x00, 0x00, 0x00, 0x10, 0x00, 0x00, 0x00, 0x0b, 0x00, 0x00, 0x00,
  0x48, 0x00, 0x00, 0x00, 0x9c, 0xfc, 0xff, 0xff, 0x39, 0x00, 0x00, 0x00,
  0x5f, 0x5f, 0x6d, 0x61, 0x69, 0x6e, 0x5f, 0x5f, 0x2e, 0x43, 0x6f, 0x6e,
  0x74, 0x72, 0x6f, 0x6c, 0x4d, 0x6f, 0x64, 0x65, 0x6c, 0x2f, 0x74, 0x6f,
  0x72, 0x63, 0x68, 0x2e, 0x6e, 0x6e, 0x2e, 0x6d, 0x6f, 0x64, 0x75, 0x6c,
  0x65, 0x73, 0x2e, 0x61, 0x63, 0x74, 0x69, 0x76, 0x61, 0x74, 0x69, 0x6f,
  0x6e, 0x2e, 0x54, 0x61, 0x6e, 0x68, 0x5f, 0x33, 0x3b, 0x00, 0x00, 0x00,
  0x02, 0x00, 0x00, 0x00, 0x01, 0x00, 0x00, 0x00, 0x18, 0x00, 0x00, 0x00,
  0x1a, 0xfd, 0xff, 0xff, 0x00, 0x00, 0x00, 0x01, 0x10, 0x00, 0x00, 0x00,
  0x10, 0x00, 0x00, 0x00, 0x0a, 0x00, 0x00, 0x00, 0x44, 0x00, 0x00, 0x00,
  0x04, 0xfd, 0xff, 0xff, 0x37, 0x00, 0x00, 0x00, 0x5f, 0x5f, 0x6d, 0x61,
  0x69, 0x6e, 0x5f, 0x5f, 0x2e, 0x43, 0x6f, 0x6e, 0x74, 0x72, 0x6f, 0x6c,
  0x4d, 0x6f, 0x64, 0x65, 0x6c, 0x2f, 0x74, 0x6f, 0x72, 0x63, 0x68, 0x2e,
  0x6e, 0x6e, 0x2e, 0x6d, 0x6f, 0x64, 0x75, 0x6c, 0x65, 0x73, 0x2e, 0x6c,
  0x69, 0x6e, 0x65, 0x61, 0x72, 0x2e, 0x4c, 0x69, 0x6e, 0x65, 0x61, 0x72,
  0x5f, 0x32, 0x3b, 0x00, 0x02, 0x00, 0x00, 0x00, 0x01, 0x00, 0x00, 0x00,
  0x18, 0x00, 0x00, 0x00, 0x7e, 0xfd, 0xff, 0xff, 0x00, 0x00, 0x00, 0x01,
  0x10, 0x00, 0x00, 0x00, 0x10, 0x00, 0x00, 0x00, 0x09, 0x00, 0x00, 0x00,
  0x48, 0x00, 0x00, 0x00, 0x68, 0xfd, 0xff, 0xff, 0x39, 0x00, 0x00, 0x00,
  0x5f, 0x5f, 0x6d, 0x61, 0x69, 0x6e, 0x5f, 0x5f, 0x2e, 0x43, 0x6f, 0x6e,
  0x74, 0x72, 0x6f, 0x6c, 0x4d, 0x6f, 0x64, 0x65, 0x6c, 0x2f, 0x74, 0x6f,
  0x72, 0x63, 0x68, 0x2e, 0x6e, 0x6e, 0x2e, 0x6d, 0x6f, 0x64, 0x75, 0x6c,
  0x65, 0x73, 0x2e, 0x61, 0x63, 0x74, 0x69, 0x76, 0x61, 0x74, 0x69, 0x6f,
  0x6e, 0x2e, 0x54, 0x61, 0x6e, 0x68, 0x5f, 0x31, 0x3b, 0x00, 0x00, 0x00,
  0x02, 0x00, 0x00, 0x00, 0x01, 0x00, 0x00, 0x00, 0x20, 0x00, 0x00, 0x00,
  0xe6, 0xfd, 0xff, 0xff, 0x00, 0x00, 0x00, 0x01, 0x10, 0x00, 0x00, 0x00,
  0x10, 0x00, 0x00, 0x00, 0x08, 0x00, 0x00, 0x00, 0x48, 0x00, 0x00, 0x00,
  0xd0, 0xfd, 0xff, 0xff, 0x38, 0x00, 0x00, 0x00, 0x5f, 0x5f, 0x6d, 0x61,
  0x69, 0x6e, 0x5f, 0x5f, 0x2e, 0x43, 0x6f, 0x6e, 0x74, 0x72, 0x6f, 0x6c,
  0x4d, 0x6f, 0x64, 0x65, 0x6c, 0x2f, 0x74, 0x6f, 0x72, 0x63, 0x68, 0x2e,
  0x6e, 0x6e, 0x2e, 0x6d, 0x6f, 0x64, 0x75, 0x6c, 0x65, 0x73, 0x2e, 0x6c,
  0x69, 0x6e, 0x65, 0x61, 0x72, 0x2e, 0x4c, 0x69, 0x6e, 0x65, 0x61, 0x72,
  0x5f, 0x30, 0x3b, 0x32, 0x00, 0x00, 0x00, 0x00, 0x02, 0x00, 0x00, 0x00,
  0x01, 0x00, 0x00, 0x00, 0x20, 0x00, 0x00, 0x00, 0x4e, 0xfe, 0xff, 0xff,
  0x00, 0x00, 0x00, 0x01, 0x10, 0x00, 0x00, 0x00, 0x10, 0x00, 0x00, 0x00,
  0x07, 0x00, 0x00, 0x00, 0x48, 0x00, 0x00, 0x00, 0x38, 0xfe, 0xff, 0xff,
  0x38, 0x00, 0x00, 0x00, 0x5f, 0x5f, 0x6d, 0x61, 0x69, 0x6e, 0x5f, 0x5f,
  0x2e, 0x43, 0x6f, 0x6e, 0x74, 0x72, 0x6f, 0x6c, 0x4d, 0x6f, 0x64, 0x65,
  0x6c, 0x2f, 0x74, 0x6f, 0x72, 0x63, 0x68, 0x2e, 0x6e, 0x6e, 0x2e, 0x6d,
  0x6f, 0x64, 0x75, 0x6c, 0x65, 0x73, 0x2e, 0x6c, 0x69, 0x6e, 0x65, 0x61,
  0x72, 0x2e, 0x4c, 0x69, 0x6e, 0x65, 0x61, 0x72, 0x5f, 0x30, 0x3b, 0x31,
  0x00, 0x00, 0x00, 0x00, 0x01, 0x00, 0x00, 0x00, 0x20, 0x00, 0x00, 0x00,
  0xb2, 0xfe, 0xff, 0xff, 0x00, 0x00, 0x00, 0x01, 0x10, 0x00, 0x00, 0x00,
  0x10, 0x00, 0x00, 0x00, 0x06, 0x00, 0x00, 0x00, 0x44, 0x00, 0x00, 0x00,
  0x9c, 0xfe, 0xff, 0xff, 0x37, 0x00, 0x00, 0x00, 0x5f, 0x5f, 0x6d, 0x61,
  0x69, 0x6e, 0x5f, 0x5f, 0x2e, 0x43, 0x6f, 0x6e, 0x74, 0x72, 0x6f, 0x6c,
  0x4d, 0x6f, 0x64, 0x65, 0x6c, 0x2f, 0x74, 0x6f, 0x72, 0x63, 0x68, 0x2e,
  0x6e, 0x6e, 0x2e, 0x6d, 0x6f, 0x64, 0x75, 0x6c, 0x65, 0x73, 0x2e, 0x6c,
  0x69, 0x6e, 0x65, 0x61, 0x72, 0x2e, 0x4c, 0x69, 0x6e, 0x65, 0x61, 0x72,
  0x5f, 0x30, 0x3b, 0x00, 0x02, 0x00, 0x00, 0x00, 0x20, 0x00, 0x00, 0x00,
  0x0f, 0x00, 0x00, 0x00, 0x16, 0xff, 0xff, 0xff, 0x00, 0x00, 0x00, 0x01,
  0x10, 0x00, 0x00, 0x00, 0x10, 0x00, 0x00, 0x00, 0x05, 0x00, 0x00, 0x00,
  0x1c, 0x00, 0x00, 0x00, 0x00, 0xff, 0xff, 0xff, 0x0f, 0x00, 0x00, 0x00,
  0x61, 0x72, 0x69, 0x74, 0x68, 0x2e, 0x63, 0x6f, 0x6e, 0x73, 0x74, 0x61,
  0x6e, 0x74, 0x33, 0x00, 0x02, 0x00, 0x00, 0x00, 0x18, 0x00, 0x00, 0x00,
  0x20, 0x00, 0x00, 0x00, 0x52, 0xff, 0xff, 0xff, 0x00, 0x00, 0x00, 0x01,
  0x10, 0x00, 0x00, 0x00, 0x10, 0x00, 0x00, 0x00, 0x04, 0x00, 0x00, 0x00,
  0x1c, 0x00, 0x00, 0x00, 0x3c, 0xff, 0xff, 0xff, 0x0f, 0x00, 0x00, 0x00,
  0x61, 0x72, 0x69, 0x74, 0x68, 0x2e, 0x63, 0x6f, 0x6e, 0x73, 0x74, 0x61,
  0x6e, 0x74, 0x32, 0x00, 0x02, 0x00, 0x00, 0x00, 0x06, 0x00, 0x00, 0x00,
  0x18, 0x00, 0x00, 0x00, 0x8e, 0xff, 0xff, 0xff, 0x00, 0x00, 0x00, 0x01,
  0x10, 0x00, 0x00, 0x00, 0x10, 0x00, 0x00, 0x00, 0x03, 0x00, 0x00, 0x00,
  0x1c, 0x00, 0x00, 0x00, 0x78, 0xff, 0xff, 0xff, 0x0f, 0x00, 0x00, 0x00,
  0x61, 0x72, 0x69, 0x74, 0x68, 0x2e, 0x63, 0x6f, 0x6e, 0x73, 0x74, 0x61,
  0x6e, 0x74, 0x31, 0x00, 0x01, 0x00, 0x00, 0x00, 0x18, 0x00, 0x00, 0x00,
  0xc6, 0xff, 0xff, 0xff, 0x00, 0x00, 0x00, 0x01, 0x10, 0x00, 0x00, 0x00,
  0x10, 0x00, 0x00, 0x00, 0x02, 0x00, 0x00, 0x00, 0x1c, 0x00, 0x00, 0x00,
  0xb0, 0xff, 0xff, 0xff, 0x0e, 0x00, 0x00, 0x00, 0x61, 0x72, 0x69, 0x74,
  0x68, 0x2e, 0x63, 0x6f, 0x6e, 0x73, 0x74, 0x61, 0x6e, 0x74, 0x00, 0x00,
  0x01, 0x00, 0x00, 0x00, 0x06, 0x00, 0x00, 0x00, 0x00, 0x00, 0x16, 0x00,
  0x18, 0x00, 0x14, 0x00, 0x00, 0x00, 0x10, 0x00, 0x0c, 0x00, 0x08, 0x00,
  0x00, 0x00, 0x00, 0x00, 0x00, 0x00, 0x07, 0x00, 0x16, 0x00, 0x00, 0x00,
  0x00, 0x00, 0x00, 0x01, 0x14, 0x00, 0x00, 0x00, 0x14, 0x00, 0x00, 0x00,
  0x01, 0x00, 0x00, 0x00, 0x2c, 0x00, 0x00, 0x00, 0x04, 0x00, 0x04, 0x00,
  0x04, 0x00, 0x00, 0x00, 0x18, 0x00, 0x00, 0x00, 0x73, 0x65, 0x72, 0x76,
  0x69, 0x6e, 0x67, 0x5f, 0x64, 0x65, 0x66, 0x61, 0x75, 0x6c, 0x74, 0x5f,
  0x61, 0x72, 0x67, 0x73, 0x5f, 0x30, 0x3a, 0x30, 0x00, 0x00, 0x00, 0x00,
  0x02, 0x00, 0x00, 0x00, 0x01, 0x00, 0x00, 0x00, 0x0f, 0x00, 0x00, 0x00,
  0x02, 0x00, 0x00, 0x00, 0x2c, 0x00, 0x00, 0x00, 0x10, 0x00, 0x00, 0x00,
  0x0c, 0x00, 0x0c, 0x00, 0x0b, 0x00, 0x00, 0x00, 0x00, 0x00, 0x04, 0x00,
  0x0c, 0x00, 0x00, 0x00, 0x1c, 0x00, 0x00, 0x00, 0x00, 0x00, 0x00, 0x1c,
  0x0c, 0x00, 0x10, 0x00, 0x0f, 0x00, 0x00, 0x00, 0x08, 0x00, 0x04, 0x00,
  0x0c, 0x00, 0x00, 0x00, 0x09, 0x00, 0x00, 0x00, 0x05, 0x00, 0x00, 0x00,
  0x00, 0x00, 0x00, 0x09
};