#include <cstdint>
#include "control_net.hpp"

alignas(16) const unsigned char control_net_tflite[] = {
  0x1c, 0x00, 0x00, 0x00, 0x54, 0x46, 0x4c, 0x33, 0x14, 0x00, 0x20, 0x00,
  0x1c, 0x00, 0x18, 0x00, 0x14, 0x00, 0x10, 0x00, 0x0c, 0x00, 0x00, 0x00,
  0x08, 0x00, 0x04, 0x00, 0x14, 0x00, 0x00, 0x00, 0x1c, 0x00, 0x00, 0x00,
  0x84, 0x00, 0x00, 0x00, 0xdc, 0x00, 0x00, 0x00, 0xc4, 0x18, 0x00, 0x00,
  0xd4, 0x18, 0x00, 0x00, 0x9c, 0x1e, 0x00, 0x00, 0x03, 0x00, 0x00, 0x00,
  0x01, 0x00, 0x00, 0x00, 0x04, 0x00, 0x00, 0x00, 0x62, 0xe6, 0xff, 0xff,
  0x0c, 0x00, 0x00, 0x00, 0x1c, 0x00, 0x00, 0x00, 0x3c, 0x00, 0x00, 0x00,
  0x0f, 0x00, 0x00, 0x00, 0x73, 0x65, 0x72, 0x76, 0x69, 0x6e, 0x67, 0x5f,
  0x64, 0x65, 0x66, 0x61, 0x75, 0x6c, 0x74, 0x00, 0x01, 0x00, 0x00, 0x00,
  0x04, 0x00, 0x00, 0x00, 0x98, 0xff, 0xff, 0xff, 0x0b, 0x00, 0x00, 0x00,
  0x04, 0x00, 0x00, 0x00, 0x08, 0x00, 0x00, 0x00, 0x6f, 0x75, 0x74, 0x70,
  0x75, 0x74, 0x5f, 0x30, 0x00, 0x00, 0x00, 0x00, 0x01, 0x00, 0x00, 0x00,
  0x04, 0x00, 0x00, 0x00, 0xd6, 0xe7, 0xff, 0xff, 0x04, 0x00, 0x00, 0x00,
  0x06, 0x00, 0x00, 0x00, 0x61, 0x72, 0x67, 0x73, 0x5f, 0x30, 0x00, 0x00,
  0x02, 0x00, 0x00, 0x00, 0x34, 0x00, 0x00, 0x00, 0x04, 0x00, 0x00, 0x00,
  0xdc, 0xff, 0xff, 0xff, 0x0e, 0x00, 0x00, 0x00, 0x04, 0x00, 0x00, 0x00,
  0x13, 0x00, 0x00, 0x00, 0x43, 0x4f, 0x4e, 0x56, 0x45, 0x52, 0x53, 0x49,
  0x4f, 0x4e, 0x5f, 0x4d, 0x45, 0x54, 0x41, 0x44, 0x41, 0x54, 0x41, 0x00,
  0x08, 0x00, 0x0c, 0x00, 0x08, 0x00, 0x04, 0x00, 0x08, 0x00, 0x00, 0x00,
  0x0d, 0x00, 0x00, 0x00, 0x04, 0x00, 0x00, 0x00, 0x13, 0x00, 0x00, 0x00,
  0x6d, 0x69, 0x6e, 0x5f, 0x72, 0x75, 0x6e, 0x74, 0x69, 0x6d, 0x65, 0x5f,
  0x76, 0x65, 0x72, 0x73, 0x69, 0x6f, 0x6e, 0x00, 0x0f, 0x00, 0x00, 0x00,
  0xe4, 0x17, 0x00, 0x00, 0xdc, 0x17, 0x00, 0x00, 0xb4, 0x17, 0x00, 0x00,
  0x3c, 0x17, 0x00, 0x00, 0xec, 0x14, 0x00, 0x00, 0xdc, 0x08, 0x00, 0x00,
  0x4c, 0x01, 0x00, 0x00, 0xbc, 0x00, 0x00, 0x00, 0xb4, 0x00, 0x00, 0x00,
  0xac, 0x00, 0x00, 0x00, 0xa4, 0x00, 0x00, 0x00, 0x9c, 0x00, 0x00, 0x00,
  0x94, 0x00, 0x00, 0x00, 0x74, 0x00, 0x00, 0x00, 0x04, 0x00, 0x00, 0x00,
  0x86, 0xe8, 0xff, 0xff, 0x04, 0x00, 0x00, 0x00, 0x60, 0x00, 0x00, 0x00,
  0x10, 0x00, 0x00, 0x00, 0x00, 0x00, 0x00, 0x00, 0x08, 0x00, 0x0e, 0x00,
  0x08, 0x00, 0x04, 0x00, 0x08, 0x00, 0x00, 0x00, 0x10, 0x00, 0x00, 0x00,
  0x24, 0x00, 0x00, 0x00, 0x00, 0x00, 0x06, 0x00, 0x08, 0x00, 0x04, 0x00,
  0x06, 0x00, 0x00, 0x00, 0x04, 0x00, 0x00, 0x00, 0x00, 0x00, 0x00, 0x00,
  0x0c, 0x00, 0x18, 0x00, 0x14, 0x00, 0x10, 0x00, 0x0c, 0x00, 0x04, 0x00,
  0x0c, 0x00, 0x00, 0x00, 0x81, 0x73, 0x00, 0x66, 0x72, 0x1e, 0xc7, 0x57,
  0x01, 0x00, 0x00, 0x00, 0x02, 0x00, 0x00, 0x00, 0x04, 0x00, 0x00, 0x00,
  0x06, 0x00, 0x00, 0x00, 0x32, 0x2e, 0x31, 0x37, 0x2e, 0x30, 0x00, 0x00,
  0xf2, 0xe8, 0xff, 0xff, 0x04, 0x00, 0x00, 0x00, 0x10, 0x00, 0x00, 0x00,
  0x32, 0x2e, 0x30, 0x2e, 0x30, 0x00, 0x00, 0x00, 0x00, 0x00, 0x00, 0x00,
  0x00, 0x00, 0x00, 0x00, 0x30, 0xe3, 0xff, 0xff, 0x34, 0xe3, 0xff, 0xff,
  0x38, 0xe3, 0xff, 0xff, 0x3c, 0xe3, 0xff, 0xff, 0x40, 0xe3, 0xff, 0xff,
  0x22, 0xe9, 0xff, 0xff, 0x04, 0x00, 0x00, 0x00, 0x80, 0x00, 0x00, 0x00,
  0xb0, 0x49, 0xb1, 0x3c, 0x78, 0xd7, 0xf7, 0xbc, 0xb3, 0xa4, 0xac, 0x3d,
  0x04, 0x3c, 0x34, 0xbf, 0xa5, 0xf4, 0x01, 0x3d, 0x09, 0xe9, 0x9a, 0xbf,
  0x9d, 0xbd, 0x2a, 0x3f, 0x87, 0xf3, 0x97, 0x3d, 0xe9, 0x63, 0xdc, 0xbc,
  0xd2, 0x09, 0x92, 0x3f, 0x8a, 0xd7, 0xdc, 0x3d, 0x9e, 0xed, 0x2d, 0xba,
  0xa7, 0xdf, 0x0b, 0x3c, 0x97, 0x3f, 0xa4, 0xbd, 0x5c, 0x23, 0x5b, 0xbd,
  0x76, 0x87, 0x32, 0x3f, 0xaa, 0xf7, 0xa0, 0xbd, 0x25, 0x26, 0xcf, 0x3d,
  0x40, 0xd3, 0x81, 0x3d, 0x63, 0x94, 0x5a, 0x3e, 0x4d, 0x75, 0x84, 0x3f,
  0xa8, 0x36, 0x39, 0x3d, 0x77, 0x39, 0x2b, 0x3d, 0x65, 0x07, 0xa1, 0x3f,
  0xc1, 0xc2, 0xea, 0xbd, 0x74, 0xcd, 0xa8, 0x3f, 0x9a, 0x4c, 0x30, 0x3f,
  0x7e, 0x07, 0x62, 0x3c, 0xa9, 0xe3, 0xe7, 0x3e, 0x76, 0xa7, 0x01, 0xbf,
  0x33, 0x7d, 0x39, 0x3f, 0x80, 0x39, 0x6b, 0x3f, 0xae, 0xe9, 0xff, 0xff,
  0x04, 0x00, 0x00, 0x00, 0x80, 0x07, 0x00, 0x00, 0x5e, 0xa8, 0x98, 0xbd,
  0x1a, 0x64, 0x26, 0xbe, 0xf4, 0x51, 0x8c, 0x3e, 0x5a, 0xb7, 0xd4, 0x3d,
  0x10, 0xf9, 0xd3, 0xbd, 0x78, 0x35, 0x75, 0x3f, 0x22, 0x24, 0x2d, 0xbd,
  0x91, 0x08, 0x8d, 0x3e, 0x5f, 0xc9, 0x1c, 0x3f, 0x69, 0xed, 0xc0, 0x3d,
  0x32, 0xa1, 0x33, 0xbe, 0x94, 0xfb, 0x4c, 0x3e, 0xce, 0xdf, 0x9b, 0xbd,
  0xe0, 0x84, 0x62, 0x3e, 0x46, 0x95, 0xa8, 0xbe, 0x5f, 0x69, 0x60, 0xbd,
  0xce, 0x46, 0xb8, 0xbd, 0x92, 0x4e, 0xb0, 0xbd, 0xa7, 0x51, 0xc5, 0x3d,
  0x76, 0xca, 0x15, 0xbd, 0x5c, 0x52, 0x24, 0xbd, 0x3e, 0x6b, 0x4c, 0x3d,
  0xbc, 0xc5, 0x82, 0xbe, 0x01, 0xfb, 0xa1, 0xbf, 0x09, 0xb4, 0xbe, 0xbd,
  0x25, 0x9b, 0x41, 0x3d, 0xdd, 0xee, 0x29, 0xbc, 0x47, 0x55, 0x6b, 0xbd,
  0x4b, 0xb5, 0xa8, 0x3d, 0xdb, 0x42, 0xa6, 0xbd, 0x62, 0x46, 0x03, 0x3f,
  0x7a, 0x6b, 0x25, 0x3f, 0x59, 0x90, 0xcc, 0x3d, 0x86, 0x27, 0x8c, 0x3c,
  0xd9, 0x55, 0xa0, 0xbe, 0xea, 0x72, 0xe6, 0xbf, 0xb9, 0x58, 0x80, 0xbe,
  0xcf, 0x79, 0x8c, 0xbd, 0xf3, 0x9e, 0x7d, 0xc0, 0x18, 0x56, 0xcd, 0xbe,
  0x36, 0x92, 0xb0, 0xbe, 0xc6, 0x0a, 0x87, 0xbe, 0x90, 0x97, 0xc9, 0x3c,
  0xc9, 0x2a, 0x84, 0x40, 0x2a, 0xe3, 0x4b, 0xbe, 0xaa, 0xdd, 0x20, 0x3e,
  0x25, 0x1b, 0x6f, 0xbe, 0xc3, 0x8a, 0xa1, 0xbd, 0x54, 0x21, 0x45, 0xbf,
  0xb8, 0xed, 0x29, 0xbf, 0x30, 0xa9, 0x82, 0xbe, 0xd9, 0x7c, 0xdd, 0xbb,
  0x98, 0xa1, 0xc2, 0xbe, 0x7b, 0xad, 0xb0, 0x3f, 0x19, 0x5b, 0xb2, 0x3c,
  0x8a, 0x49, 0x74, 0x3e, 0x6e, 0x51, 0xb2, 0x3c, 0x4a, 0x3c, 0xbd, 0xbc,
  0x88, 0x7a, 0x50, 0x3e, 0xec, 0x69, 0xcd, 0xbc, 0x96, 0x57, 0x8f, 0x3d,
  0xaa, 0x61, 0x1b, 0xbe, 0xd8, 0x19, 0x9c, 0x3d, 0x21, 0x5a, 0x93, 0xbc,
  0xb9, 0xc9, 0x31, 0xbe, 0xa9, 0xf2, 0x93, 0x3d, 0x06, 0xc6, 0xbe, 0x3d,
  0x31, 0xd9, 0x05, 0xbd, 0x6f, 0xf8, 0x84, 0x3c, 0x0f, 0xac, 0xbb, 0x3c,
  0xe0, 0x2d, 0x83, 0x3c, 0x94, 0x5b, 0x9a, 0x3d, 0xae, 0x74, 0x7f, 0x3d,
  0xd2, 0xb1, 0x9c, 0x3f, 0x2a, 0xb8, 0xec, 0xbc, 0xac, 0x7f, 0x62, 0xbd,
  0xba, 0x13, 0x41, 0x3e, 0x33, 0x1b, 0x25, 0x3d, 0xfa, 0xb1, 0x3a, 0xbe,
  0xc6, 0x8a, 0x72, 0x3f, 0x77, 0x96, 0x55, 0x3f, 0x4a, 0x92, 0xe0, 0xbe,
  0x77, 0x86, 0x0e, 0x3f, 0xe0, 0x55, 0xad, 0xbf, 0x0e, 0x3f, 0x12, 0x3e,
  0x50, 0x5b, 0xbe, 0xbe, 0xb6, 0x23, 0x1a, 0x3d, 0x21, 0xb6, 0x9c, 0xbd,
  0xca, 0x7f, 0x13, 0x3e, 0x43, 0x4b, 0x0f, 0x3d, 0x8d, 0x55, 0xa5, 0x3e,
  0xb4, 0x79, 0xb0, 0x3b, 0x02, 0x1e, 0xfa, 0x3c, 0x97, 0xa7, 0x2e, 0x3f,
  0x4f, 0x34, 0xcb, 0x3e, 0x9d, 0x8f, 0x0b, 0xc0, 0xf3, 0x9b, 0xc8, 0xbe,
  0x34, 0xb8, 0x9f, 0x3e, 0xcd, 0x08, 0x69, 0xbf, 0x68, 0x83, 0x30, 0xbe,
  0xd0, 0xc9, 0x16, 0xbe, 0x68, 0x85, 0x8a, 0xbe, 0x9a, 0xb8, 0x10, 0xbe,
  0xa3, 0xac, 0x81, 0x3d, 0x39, 0x3b, 0x33, 0xbd, 0x75, 0x23, 0x8d, 0x3b,
  0x61, 0xad, 0xef, 0xbc, 0x6a, 0xde, 0x2b, 0xbd, 0xe1, 0xb1, 0x86, 0x3d,
  0x45, 0x1d, 0x66, 0x3e, 0x7b, 0x61, 0xd7, 0x3e, 0xb5, 0xf5, 0x1a, 0x3e,
  0x8d, 0xf9, 0x26, 0xbe, 0xbc, 0x70, 0xa7, 0x3e, 0x66, 0xc0, 0xc5, 0xbd,
  0x7d, 0xd1, 0x23, 0xbe, 0x42, 0x92, 0x05, 0xbf, 0x8e, 0xd8, 0xbd, 0x3d,
  0xbc, 0x56, 0xe5, 0xbd, 0x15, 0x67, 0x03, 0xc0, 0xce, 0x5b, 0x99, 0x3c,
  0x19, 0x76, 0x26, 0x40, 0x62, 0x1a, 0x15, 0x3e, 0x4d, 0xaa, 0xb1, 0x3b,
  0x15, 0xc1, 0x26, 0x3e, 0x49, 0xae, 0xcb, 0x3c, 0xa8, 0x4c, 0x05, 0x3e,
  0x14, 0x83, 0x71, 0xbc, 0x58, 0xc4, 0xa0, 0xbf, 0xfd, 0x63, 0x19, 0xbd,
  0x3a, 0x76, 0x02, 0xc0, 0x0c, 0x22, 0x69, 0xbd, 0x4a, 0x73, 0x30, 0x3c,
  0xff, 0x9a, 0x8d, 0xbd, 0x81, 0x3f, 0x2c, 0x3d, 0x53, 0x50, 0x81, 0x3c,
  0x4f, 0xf8, 0x5e, 0x3e, 0x78, 0x62, 0x39, 0x3e, 0x45, 0xb7, 0xf1, 0xbe,
  0xe6, 0x35, 0x6f, 0x3f, 0x5b, 0x57, 0x7b, 0xbf, 0xff, 0xa2, 0x9f, 0x3d,
  0x58, 0x8a, 0x5b, 0xbf, 0x29, 0xc0, 0xb2, 0xbf, 0x7c, 0x73, 0x28, 0x3a,
  0xd1, 0xf0, 0x82, 0xbe, 0x91, 0xba, 0x80, 0xbe, 0x1c, 0xe3, 0x2e, 0xbc,
  0xab, 0xe4, 0x03, 0xbe, 0xb8, 0xe0, 0x35, 0xbd, 0x59, 0xf2, 0x08, 0xbd,
  0xf5, 0x1a, 0x0d, 0x3d, 0xb3, 0x31, 0x04, 0xbe, 0x6e, 0xa9, 0xd7, 0xbe,
  0xe1, 0x24, 0xe4, 0xbd, 0x2a, 0x73, 0x15, 0xbf, 0x3d, 0x81, 0x5c, 0xbe,
  0x88, 0xf3, 0xf2, 0x3e, 0xa6, 0x89, 0xcc, 0xbf, 0x59, 0x20, 0x8d, 0x3e,
  0x65, 0x98, 0xd9, 0xbe, 0xce, 0x6b, 0xd7, 0x3e, 0xc6, 0xb6, 0x49, 0xbe,
  0x02, 0xdf, 0xc9, 0xbe, 0x78, 0xf6, 0x76, 0xbd, 0xdc, 0x9f, 0xb8, 0x3d,
  0x5d, 0x05, 0x2a, 0x3e, 0xdb, 0x56, 0x9e, 0xbe, 0x05, 0x59, 0x13, 0xbe,
  0xaa, 0xab, 0xc6, 0xbe, 0xf5, 0x8c, 0xe9, 0xbe, 0xa6, 0xe7, 0xce, 0xbe,
  0x8e, 0x1f, 0xf6, 0x3d, 0x62, 0xeb, 0x60, 0xbf, 0xca, 0xd3, 0x85, 0xbd,
  0xe2, 0x75, 0x27, 0x3d, 0xac, 0xe5, 0x55, 0xbe, 0x40, 0x4d, 0x50, 0xbd,
  0x72, 0x63, 0x04, 0x3e, 0xb1, 0x38, 0xec, 0x3d, 0x35, 0x2b, 0xda, 0x3d,
  0xd7, 0x99, 0x0d, 0x3e, 0x4a, 0xb6, 0x3b, 0xbe, 0xa1, 0x5b, 0xb7, 0xbf,
  0x8c, 0x61, 0xb5, 0xbe, 0xa5, 0x81, 0x13, 0xbf, 0xd1, 0x28, 0x15, 0x3d,
  0x27, 0xf5, 0xc5, 0xbd, 0x6b, 0xd5, 0x5f, 0xbe, 0xd0, 0x1c, 0x34, 0x3e,
  0xca, 0xb9, 0x66, 0xbc, 0xca, 0xf2, 0xcc, 0x3b, 0x58, 0xfb, 0x39, 0x3d,
  0xba, 0x22, 0xcb, 0xbc, 0xb7, 0x24, 0x5b, 0xbd, 0x22, 0xc7, 0x01, 0x3d,
  0x14, 0xeb, 0x95, 0xbe, 0xf3, 0xfa, 0x49, 0x3e, 0xc0, 0x4c, 0x15, 0x3f,
  0x87, 0xeb, 0x1e, 0x3f, 0x20, 0x82, 0x3d, 0x3f, 0x79, 0x81, 0xd8, 0x3c,
  0xba, 0x4b, 0x32, 0xbf, 0x53, 0x9a, 0x7d, 0x3e, 0xff, 0x6c, 0x9c, 0x3d,
  0x17, 0xbb, 0xb3, 0xbe, 0x4f, 0xda, 0x1e, 0xbe, 0x79, 0x22, 0x0f, 0xbe,
  0x60, 0x0d, 0x83, 0xbd, 0x4c, 0x5b, 0x3a, 0x3e, 0x0b, 0x5b, 0xe7, 0x3d,
  0x4c, 0x14, 0x03, 0xbc, 0xb0, 0xbd, 0x1b, 0x3d, 0x84, 0x2b, 0x35, 0xbe,
  0x70, 0x54, 0xc0, 0xbe, 0xfe, 0xd6, 0x1e, 0xbf, 0xdc, 0xe2, 0xb5, 0xbe,
  0x7b, 0xd6, 0x1d, 0x3e, 0x72, 0xa8, 0x95, 0xbc, 0xb0, 0x7c, 0x9e, 0x3d,
  0xac, 0x6a, 0x1a, 0x3d, 0x45, 0x93, 0x4b, 0x3e, 0x10, 0x24, 0x3d, 0xbd,
  0x6c, 0x88, 0x9b, 0x3d, 0xe3, 0xa6, 0xea, 0xbf, 0xb9, 0x6d, 0xa9, 0xbc,
  0xd6, 0x1e, 0x9a, 0xbd, 0x6e, 0x1e, 0x1a, 0xbd, 0x93, 0xac, 0xa7, 0xbd,
  0x8f, 0xc3, 0x40, 0x3f, 0x26, 0x94, 0x22, 0xbf, 0xe3, 0xad, 0x0f, 0xbf,
  0x30, 0xe3, 0x21, 0x3f, 0xe8, 0xb9, 0xaf, 0x3f, 0x98, 0x49, 0x80, 0xbd,
  0x18, 0x54, 0x4a, 0x3e, 0xc2, 0xf0, 0x2b, 0x3c, 0xe4, 0x56, 0x61, 0xbd,
  0xcd, 0x8a, 0x05, 0x3e, 0x5b, 0xfb, 0x08, 0xbe, 0x05, 0xd2, 0xe4, 0x3f,
  0x20, 0x11, 0x06, 0x3e, 0xd1, 0x4e, 0x20, 0xbe, 0x1c, 0xbe, 0xfe, 0xbe,
  0xc6, 0x20, 0x9c, 0x3e, 0x69, 0xb6, 0x59, 0xbf, 0x6b, 0xd1, 0xaa, 0x3e,
  0x22, 0x6b, 0xf7, 0x3e, 0x98, 0x33, 0xce, 0xbe, 0x55, 0x78, 0x04, 0xc0,
  0x44, 0x08, 0x5a, 0xbe, 0x3b, 0x92, 0x97, 0x3d, 0x64, 0xd8, 0x38, 0xbc,
  0x6a, 0xba, 0xae, 0x3c, 0x6d, 0x92, 0x9b, 0x3d, 0x3a, 0xa5, 0xa4, 0x3e,
  0x64, 0xf7, 0x82, 0x3f, 0xe9, 0xc6, 0xa6, 0x3c, 0x2b, 0xe2, 0x61, 0xbe,
  0xab, 0xc2, 0x78, 0xbd, 0xdd, 0x42, 0xab, 0xbf, 0x2e, 0x20, 0x78, 0x3d,
  0x45, 0x54, 0xa7, 0x3e, 0xe3, 0xef, 0xe8, 0xc0, 0xb9, 0x6d, 0xd6, 0x3d,
  0xe2, 0x1d, 0x0a, 0xbf, 0x17, 0x2e, 0x48, 0x3c, 0x13, 0x9f, 0x49, 0x3c,
  0xca, 0x0d, 0x4e, 0xc0, 0xd2, 0x88, 0x6c, 0xbe, 0xca, 0xc2, 0x06, 0xbc,
  0x5a, 0x0b, 0xa2, 0xbc, 0xd7, 0xa2, 0x0e, 0xbe, 0x1d, 0x89, 0x5e, 0x3e,
  0x6f, 0xc4, 0x3f, 0xbd, 0x86, 0xf4, 0xff, 0x3c, 0x6f, 0x80, 0x01, 0xbe,
  0xaf, 0x43, 0x7b, 0xbe, 0xa3, 0xed, 0xcf, 0xbf, 0x5e, 0xc7, 0x25, 0x3d,
  0x70, 0x33, 0x83, 0xbe, 0x1c, 0x1b, 0x8d, 0x3e, 0x7c, 0xfa, 0x1c, 0x3e,
  0x10, 0x6b, 0xfa, 0x3d, 0xdd, 0x82, 0x3a, 0xbe, 0xee, 0xfa, 0x81, 0xbf,
  0x11, 0x43, 0x9a, 0x3e, 0x96, 0x64, 0x62, 0x3e, 0xf0, 0xca, 0x41, 0xbe,
  0xcf, 0xd8, 0x65, 0x3e, 0x52, 0xbc, 0x7e, 0x40, 0xeb, 0x9a, 0x36, 0x3e,
  0xad, 0x45, 0x7d, 0x3d, 0x97, 0x0e, 0x68, 0xbf, 0x90, 0xa0, 0x56, 0x3e,
  0xd5, 0x71, 0x9a, 0x3c, 0xb2, 0x11, 0xd4, 0x3f, 0xd4, 0xf9, 0x3b, 0xbe,
  0x30, 0xc6, 0x28, 0xbe, 0x08, 0x2e, 0x3d, 0x3d, 0x5b, 0x45, 0x7e, 0xbe,
  0x87, 0x81, 0x26, 0xbe, 0xf4, 0xc8, 0x4e, 0xbe, 0xb0, 0x91, 0xf0, 0xbe,
  0x9e, 0x7b, 0xa6, 0xbe, 0x77, 0x3d, 0xab, 0x3f, 0x5d, 0xa1, 0x3a, 0x3f,
  0x59, 0x5d, 0xd7, 0x3e, 0x2e, 0xea, 0x6f, 0x3f, 0xd3, 0x0e, 0xc0, 0x3e,
  0xc0, 0xf9, 0xc3, 0x3e, 0x56, 0x80, 0xff, 0x3d, 0x4b, 0x79, 0x14, 0xbe,
  0xc9, 0x7f, 0x38, 0xbd, 0x19, 0x31, 0x8a, 0xbd, 0x5d, 0x8c, 0xd8, 0xbc,
  0x6d, 0x2d, 0xe7, 0x3d, 0xf1, 0xb5, 0x78, 0x3d, 0xe1, 0x29, 0x8d, 0xbf,
  0xde, 0xb1, 0xfe, 0x3e, 0x6f, 0xf2, 0xae, 0xbd, 0xc4, 0x68, 0x8a, 0xbe,
  0xb0, 0x76, 0x8a, 0x3c, 0xb5, 0xf5, 0xe0, 0x3e, 0x96, 0x73, 0x55, 0x3e,
  0x05, 0xa9, 0x1b, 0xbf, 0x38, 0x0a, 0x49, 0x3c, 0x9f, 0x6c, 0xad, 0x3c,
  0x11, 0xa7, 0x35, 0x3d, 0xcc, 0xd2, 0xd4, 0xbc, 0xb5, 0xd0, 0x52, 0x3e,
  0x93, 0x44, 0x07, 0xbf, 0xc7, 0x92, 0x62, 0xc0, 0xd5, 0x55, 0xcd, 0x3d,
  0x66, 0xc3, 0x87, 0x3e, 0xa9, 0x0d, 0x81, 0xbe, 0xe7, 0x68, 0x28, 0x3e,
  0x1f, 0x6e, 0x80, 0xbd, 0xfb, 0x58, 0x1e, 0x40, 0xe6, 0x4e, 0x13, 0xbe,
  0x54, 0xcd, 0xb6, 0x3e, 0xb8, 0x85, 0xd6, 0x3f, 0xde, 0x6e, 0x53, 0x3e,
  0xcb, 0x54, 0x30, 0x3b, 0x3a, 0x05, 0x97, 0xbe, 0x06, 0x0a, 0x0c, 0x3e,
  0x79, 0x63, 0x50, 0xbe, 0x4b, 0x69, 0xf7, 0x3d, 0x47, 0x0c, 0x2d, 0x3f,
  0x2a, 0x77, 0x94, 0x3e, 0xed, 0x97, 0x9a, 0xbf, 0xbe, 0x44, 0x50, 0x3f,
  0x86, 0xe8, 0x17, 0x3f, 0x94, 0x6e, 0x98, 0x3f, 0x50, 0x35, 0xa9, 0xbe,
  0x24, 0x24, 0xa1, 0x3e, 0x6f, 0x83, 0xf3, 0xbc, 0x38, 0x13, 0xc9, 0x3d,
  0xc9, 0x6b, 0xea, 0x3b, 0x68, 0x22, 0x11, 0x3d, 0xf5, 0x25, 0x94, 0xbd,
  0xd1, 0x2a, 0x2d, 0xbf, 0x33, 0x52, 0x66, 0x3f, 0x43, 0x21, 0x2d, 0xbe,
  0x1a, 0x62, 0xa2, 0xbe, 0x43, 0x06, 0x06, 0x3f, 0xba, 0x64, 0x0a, 0xbf,
  0xea, 0xd9, 0x2c, 0x3e, 0x5c, 0xb2, 0x79, 0xbf, 0x29, 0x50, 0x04, 0xbe,
  0xe5, 0xc5, 0x73, 0xbf, 0x2c, 0x8e, 0x94, 0xbe, 0xf1, 0x4d, 0x01, 0x3e,
  0xe4, 0x59, 0x06, 0x3e, 0xac, 0x34, 0xf9, 0x3e, 0x2c, 0xaa, 0x85, 0xbe,
  0xb3, 0xf5, 0x46, 0x3d, 0xf3, 0xe3, 0xcf, 0x3d, 0x9c, 0xfe, 0x99, 0xbe,
  0x21, 0x8f, 0x62, 0x3d, 0xc9, 0xfc, 0xca, 0x3f, 0x6f, 0xa3, 0xed, 0x3e,
  0xf6, 0x22, 0x99, 0xbf, 0x7f, 0xb4, 0x57, 0x3e, 0x65, 0xdd, 0x87, 0x3e,
  0x11, 0xec, 0x93, 0x3d, 0xf6, 0x08, 0x10, 0xbd, 0xe8, 0xc6, 0xd9, 0xbc,
  0x5b, 0xbd, 0xc2, 0x3d, 0x10, 0x35, 0xa7, 0x3d, 0xcb, 0xab, 0x6a, 0xbe,
  0xbf, 0xc8, 0x60, 0x3e, 0x30, 0x36, 0x22, 0x3d, 0xa7, 0x29, 0xf8, 0xbe,
  0x10, 0xc4, 0x74, 0x3e, 0xf3, 0xa9, 0xaf, 0x3f, 0x11, 0x3b, 0x15, 0xbf,
  0xbc, 0xa1, 0xd6, 0xbd, 0xa1, 0x79, 0x40, 0xbf, 0x59, 0xa5, 0x3a, 0x3e,
  0x6e, 0x61, 0x51, 0xbe, 0xe6, 0x84, 0x30, 0xbd, 0x40, 0x50, 0x36, 0x3e,
  0x27, 0xa8, 0xb4, 0x3d, 0x51, 0x48, 0xe4, 0xbc, 0x21, 0xc7, 0xcb, 0x3d,
  0x2f, 0x3e, 0x49, 0x3d, 0xfa, 0xc5, 0xd1, 0x3d, 0xc5, 0x07, 0xc8, 0xbc,
  0xe3, 0x22, 0x1f, 0x3e, 0x28, 0xdd, 0xf1, 0xbd, 0x62, 0x1c, 0xa0, 0x3d,
  0xe3, 0x6a, 0x56, 0x3d, 0x30, 0xf2, 0x33, 0xbe, 0xbc, 0x0c, 0xc9, 0xbd,
  0x37, 0x60, 0x5d, 0xbe, 0x31, 0x04, 0xb5, 0xbd, 0x0e, 0x49, 0xa2, 0xc0,
  0xc8, 0xaa, 0x02, 0x3d, 0xd6, 0xfc, 0xbe, 0xbe, 0x83, 0x73, 0xf6, 0xbc,
  0xac, 0x96, 0x5a, 0xbe, 0x72, 0x75, 0x2d, 0xbd, 0xa1, 0x27, 0x92, 0x3e,
  0x4c, 0xa9, 0xaf, 0x3c, 0xf9, 0x9e, 0xb8, 0x3f, 0x98, 0x27, 0x08, 0xbf,
  0x24, 0x85, 0x39, 0x3f, 0xca, 0x3e, 0x01, 0x3f, 0x7a, 0x21, 0x4f, 0x3e,
  0x94, 0x64, 0x02, 0x3e, 0x3d, 0xc2, 0x82, 0xbe, 0x3d, 0x6e, 0xbf, 0x3b,
  0xee, 0x0e, 0x93, 0xbe, 0x11, 0x80, 0x92, 0x3d, 0xbd, 0xb4, 0x87, 0xbd,
  0x78, 0x4d, 0x72, 0xbd, 0xec, 0x75, 0xac, 0xbd, 0x6e, 0x6d, 0xe9, 0xbe,
  0x3b, 0x7f, 0x1a, 0x3f, 0xd6, 0x0a, 0xc8, 0x3e, 0x39, 0xf1, 0x21, 0xbf,
  0xb5, 0xa2, 0xf4, 0xbe, 0xf3, 0xc6, 0x8b, 0x3f, 0x01, 0xef, 0x1e, 0xbe,
  0x03, 0x1a, 0x43, 0x3d, 0x4a, 0xec, 0x9d, 0x3e, 0x74, 0x4e, 0x12, 0x3d,
  0x15, 0x8a, 0x86, 0x3b, 0xa1, 0x75, 0x0f, 0x3e, 0x2f, 0x33, 0xd0, 0xbe,
  0xd3, 0xa1, 0x94, 0xbd, 0xc1, 0xbe, 0x53, 0xbe, 0x42, 0xe0, 0x01, 0x3e,
  0x17, 0x67, 0x28, 0x3f, 0x32, 0xfe, 0x86, 0x3f, 0x4b, 0xa8, 0xdb, 0xbe,
  0x55, 0x48, 0x65, 0x3e, 0xdc, 0x66, 0x22, 0xbf, 0x00, 0x68, 0x65, 0x3f,
  0xad, 0x8c, 0x80, 0x3e, 0x91, 0x61, 0xb9, 0x3e, 0x7f, 0x41, 0x3f, 0x3e,
  0x55, 0xee, 0xae, 0xbd, 0x68, 0x34, 0x5d, 0x3d, 0xd8, 0x20, 0xaf, 0x3e,
  0x88, 0x63, 0xe3, 0xbd, 0x84, 0xe3, 0x5d, 0x3d, 0xd9, 0x8b, 0xa4, 0xbe,
  0xcb, 0x77, 0xab, 0x3e, 0xd6, 0xc1, 0xdd, 0xbf, 0x2a, 0x69, 0x67, 0xbf,
  0xf9, 0x74, 0x75, 0xbe, 0x2e, 0x89, 0xac, 0x3d, 0x76, 0xcb, 0xa6, 0xbe,
  0x05, 0x29, 0x00, 0x3d, 0xb0, 0x8b, 0xcf, 0xbd, 0xca, 0xfe, 0xf3, 0xbd,
  0xa7, 0xbf, 0x73, 0xbd, 0xc0, 0x6a, 0x34, 0x3e, 0x3a, 0xf1, 0xff, 0xff,
  0x04, 0x00, 0x00, 0x00, 0x00, 0x0c, 0x00, 0x00, 0xfe, 0x48, 0x82, 0xbe,
  0xb3, 0x35, 0xc7, 0xbd, 0x36, 0xb1, 0x31, 0xbe, 0xc6, 0x5d, 0x8c, 0xbe,
  0x02, 0xc8, 0x13, 0x3e, 0x31, 0xca, 0x1b, 0xbf, 0xd8, 0x82, 0x13, 0x3e,
  0x30, 0x94, 0x99, 0x3d, 0x4e, 0x0b, 0x30, 0xbd, 0xde, 0xc8, 0x1d, 0x3f,
  0x04, 0x9d, 0x03, 0x3e, 0x77, 0x9b, 0x12, 0xbd, 0x20, 0x01, 0x38, 0x3e,
  0xd0, 0xd4, 0x97, 0x3e, 0xc6, 0x95, 0x43, 0xbd, 0xb4, 0x4c, 0x05, 0xbf,
  0x83, 0xae, 0x0f, 0x3f, 0xe6, 0x94, 0x8e, 0xbe, 0x2c, 0x9b, 0xa3, 0xbd,
  0xa8, 0x9e, 0x90, 0x3e, 0x19, 0x65, 0x87, 0xbd, 0x64, 0x5d, 0xae, 0x3e,
  0xe1, 0xb8, 0x29, 0xbc, 0x76, 0x3a, 0xb0, 0xbe, 0xc6, 0xc0, 0x05, 0xbe,
  0x30, 0x0b, 0x20, 0xbf, 0x91, 0x92, 0xcc, 0x3e, 0x1a, 0x9f, 0xe5, 0xbc,
  0x4a, 0x9f, 0x0e, 0xbe, 0x2f, 0x39, 0x44, 0x3e, 0x85, 0x01, 0x09, 0x3f,
  0x33, 0xd4, 0xc9, 0x3e, 0xda, 0xa7, 0x63, 0x3d, 0x43, 0x44, 0x21, 0x3f,
  0xf2, 0x80, 0xc7, 0x3d, 0x35, 0xa8, 0x83, 0xbe, 0xdc, 0xb2, 0x9c, 0xbc,
  0xa3, 0x78, 0xde, 0x3e, 0x46, 0xc2, 0x1a, 0x3c, 0x01, 0x9e, 0xc8, 0xbe,
  0xd4, 0xa8, 0xf5, 0x3e, 0xdf, 0x1c, 0xda, 0x3d, 0x9e, 0x10, 0x34, 0x3f,
  0xcc, 0x5d, 0x40, 0x3f, 0x5e, 0x42, 0xc5, 0xbc, 0x96, 0x48, 0xc7, 0xbe,
  0x3a, 0x0b, 0x69, 0xbe, 0xdd, 0x01, 0x51, 0xbe, 0x2a, 0xc8, 0x1c, 0xbe,
  0x09, 0xe8, 0x85, 0xbe, 0x86, 0xd2, 0x0e, 0x3f, 0xf5, 0x63, 0x7b, 0x3d,
  0x48, 0x2e, 0x47, 0xbd, 0x36, 0xa6, 0x1b, 0xbb, 0x72, 0x8f, 0xc2, 0x3e,
  0x45, 0xe9, 0xbf, 0xbe, 0x43, 0xaa, 0x27, 0x3e, 0xd5, 0xfb, 0xe5, 0xbd,
  0xb8, 0xbe, 0x29, 0xbd, 0xda, 0x6e, 0x53, 0x3f, 0x1d, 0x1d, 0x4d, 0x3a,
  0x5e, 0xc0, 0x8a, 0xbe, 0x0b, 0x53, 0xb1, 0xbd, 0x6c, 0xcd, 0x24, 0x3b,
  0x46, 0xd3, 0xb1, 0x3d, 0xad, 0x02, 0xfe, 0xbc, 0x9b, 0x88, 0x1d, 0xbe,
  0x9b, 0xd5, 0x88, 0xbe, 0x5f, 0xe7, 0xab, 0x3d, 0x43, 0xb0, 0x7e, 0x3e,
  0x08, 0xa6, 0xad, 0xbe, 0x7e, 0xfb, 0xca, 0xbd, 0xad, 0x2a, 0x29, 0xbe,
  0x16, 0xad, 0x86, 0xbe, 0xd3, 0xd5, 0x88, 0xbd, 0x72, 0x7c, 0xd9, 0x3d,
  0xbb, 0x10, 0x1a, 0xbf, 0xfb, 0xb0, 0x1c, 0x3f, 0x2b, 0xc7, 0x50, 0x3e,
  0xef, 0xfe, 0x63, 0xbe, 0x1a, 0x42, 0xa8, 0xbe, 0x75, 0x7c, 0xfd, 0xbc,
  0x4a, 0x50, 0x9f, 0xbe, 0x1b, 0x6e, 0x57, 0xbe, 0x44, 0x0c, 0x40, 0x3e,
  0x28, 0xff, 0x56, 0xbe, 0x8b, 0xac, 0x1a, 0xbe, 0x3f, 0x2c, 0x77, 0xbf,
  0xe2, 0x33, 0x16, 0xbe, 0xb1, 0xca, 0x82, 0xbe, 0x17, 0x7f, 0xcc, 0xbe,
  0xc8, 0x5b, 0xfa, 0xbd, 0x19, 0x39, 0x15, 0x3e, 0xf8, 0xd9, 0x26, 0x3f,
  0x06, 0x2c, 0x00, 0xbe, 0xd1, 0x5c, 0xa9, 0x3e, 0x0e, 0x2e, 0xda, 0xbd,
  0xcf, 0x75, 0x02, 0xbe, 0x1b, 0xc1, 0x99, 0xbc, 0x48, 0x04, 0x1d, 0x3e,
  0x19, 0x7d, 0x8b, 0x3d, 0x27, 0x7f, 0x27, 0xbe, 0x66, 0xf5, 0x52, 0x3e,
  0x57, 0x61, 0xf6, 0xba, 0xfd, 0x66, 0x18, 0xbd, 0xc4, 0x74, 0xc6, 0x3d,
  0x3f, 0x86, 0x9f, 0xbd, 0xaf, 0x9f, 0x1b, 0x3e, 0xf7, 0x93, 0x80, 0x3d,
  0x6d, 0x0b, 0x16, 0x3d, 0x8a, 0x49, 0xbf, 0x3c, 0x43, 0x3e, 0x1a, 0xbe,
  0x8c, 0x0e, 0x0e, 0xbd, 0x1d, 0x0a, 0x08, 0x3d, 0x78, 0x50, 0xe4, 0xbc,
  0xd4, 0xb6, 0x1a, 0x3e, 0x00, 0x48, 0xf1, 0xbc, 0x2b, 0x56, 0x05, 0xbc,
  0x58, 0xaf, 0x57, 0x3c, 0xba, 0x9f, 0x10, 0x3e, 0xc9, 0x64, 0x0f, 0x3e,
  0xd2, 0x0f, 0x26, 0xbe, 0x90, 0x3b, 0x6c, 0xbd, 0x2b, 0x42, 0xa9, 0xbc,
  0x58, 0x62, 0x06, 0x3e, 0xe1, 0xcc, 0xd2, 0x3d, 0xe4, 0x1f, 0x74, 0x3d,
  0x9a, 0xad, 0x79, 0xbd, 0x95, 0x87, 0x67, 0x3e, 0x55, 0x1d, 0xda, 0x3e,
  0xf8, 0xdb, 0x2e, 0x3f, 0x24, 0xf0, 0x80, 0xbe, 0xe7, 0x77, 0xf1, 0x3e,
  0x23, 0x2d, 0x0c, 0x3f, 0xef, 0xea, 0x2f, 0xbf, 0x06, 0x1f, 0x45, 0x3e,
  0xca, 0x3c, 0x08, 0xbe, 0xb5, 0x52, 0xc4, 0xbe, 0x38, 0x53, 0x0b, 0x3e,
  0x6b, 0x69, 0xac, 0xbd, 0x4c, 0x47, 0x92, 0xbd, 0x07, 0x57, 0x0b, 0x3e,
  0xbb, 0x5d, 0x79, 0xbe, 0x22, 0x85, 0x1d, 0x3c, 0x8c, 0x81, 0xef, 0xbe,
  0xad, 0xc8, 0x14, 0xbf, 0x02, 0xaa, 0x00, 0x3e, 0x46, 0x42, 0x97, 0x3e,
  0x1a, 0x76, 0xbb, 0x3e, 0xd8, 0xfb, 0x04, 0xbe, 0x95, 0x99, 0xdf, 0xbd,
  0x1e, 0x6c, 0xa8, 0xbe, 0x91, 0x64, 0x36, 0x3e, 0xa5, 0x87, 0xb0, 0x3e,
  0x75, 0x8a, 0xdd, 0x3d, 0x61, 0xd0, 0x35, 0xbd, 0xa1, 0x40, 0x0d, 0x3e,
  0xaf, 0xb2, 0xa4, 0xbd, 0x55, 0xbb, 0x00, 0x3e, 0xf8, 0x23, 0x67, 0x3e,
  0x0e, 0x4d, 0x4e, 0x3e, 0x74, 0xf7, 0x86, 0x3d, 0x2d, 0xff, 0xe2, 0xbd,
  0x55, 0xba, 0xc6, 0xbe, 0x3a, 0x28, 0x61, 0xbd, 0xcb, 0xa4, 0x7e, 0x3e,
  0xe5, 0xd2, 0xf8, 0x3e, 0xc0, 0x46, 0x91, 0xbd, 0x34, 0x47, 0xe3, 0x3e,
  0x18, 0xd5, 0xe1, 0xbe, 0x43, 0x27, 0xa1, 0x3e, 0x79, 0xe9, 0xe8, 0xbc,
  0xd6, 0x36, 0x60, 0xbe, 0xf7, 0x55, 0xb5, 0xbd, 0x4c, 0x19, 0xbb, 0x3d,
  0xb5, 0x22, 0x56, 0x3b, 0xd1, 0xac, 0xa0, 0xbd, 0xd6, 0x7a, 0xc3, 0xbd,
  0x60, 0xad, 0x7a, 0x3e, 0x25, 0x6e, 0x0a, 0x3e, 0x21, 0x17, 0x1f, 0x3f,
  0x38, 0xc0, 0xe8, 0xbe, 0x40, 0x91, 0x21, 0x3e, 0x4e, 0xdd, 0x07, 0xbe,
  0x69, 0x5b, 0xaf, 0x3e, 0x71, 0x61, 0x22, 0x3f, 0xc5, 0x7c, 0x1d, 0xbe,
  0xc5, 0xc3, 0x38, 0xbd, 0x96, 0xc0, 0x5b, 0xbe, 0xbf, 0xb0, 0xf2, 0xbe,
  0x20, 0xda, 0x15, 0xbe, 0x88, 0x83, 0x0e, 0x3f, 0xab, 0xe3, 0x08, 0x3d,
  0x47, 0x24, 0xac, 0xbe, 0x09, 0x47, 0xdc, 0xbc, 0x34, 0xfa, 0x30, 0xbe,
  0xff, 0x70, 0xed, 0x3d, 0x3d, 0x38, 0xd4, 0xbc, 0x5c, 0x5e, 0x67, 0x3c,
  0x1b, 0x87, 0x0b, 0x3c, 0xaa, 0x97, 0xe5, 0x3c, 0xd5, 0x0f, 0xa0, 0x3c,
  0x45, 0x0f, 0x89, 0xbd, 0xfd, 0xc8, 0x8c, 0xbc, 0x7d, 0x5b, 0x02, 0xbc,
  0xb9, 0x04, 0x3f, 0x3d, 0x52, 0x25, 0xac, 0xbd, 0x4d, 0x9c, 0x61, 0xbe,
  0x6b, 0xee, 0x92, 0xbd, 0x44, 0xf9, 0x8f, 0x3c, 0x71, 0xad, 0x0e, 0x3e,
  0xac, 0x27, 0xaf, 0xba, 0x90, 0xdf, 0x0f, 0x3d, 0xd0, 0x5a, 0xa3, 0x3b,
  0xb2, 0xa1, 0xb3, 0x3b, 0xd5, 0xd6, 0x84, 0xbd, 0x60, 0x8a, 0x9e, 0xbd,
  0xf9, 0x35, 0xbf, 0xbd, 0x30, 0x98, 0xa9, 0xbd, 0x74, 0x32, 0x74, 0x3c,
  0x79, 0x0e, 0x43, 0xbd, 0x77, 0x9d, 0xc0, 0x3d, 0x68, 0xa9, 0x98, 0xbd,
  0xfb, 0x03, 0x38, 0x3e, 0x9f, 0x72, 0x34, 0xbd, 0x7d, 0xcd, 0x2b, 0xbe,
  0x29, 0xd5, 0x74, 0xbd, 0x7f, 0xf1, 0x1c, 0x3e, 0x8b, 0xac, 0x3c, 0xbe,
  0xe7, 0x68, 0x15, 0x3f, 0x60, 0xdd, 0xd9, 0x3d, 0x60, 0xb1, 0xed, 0xbe,
  0xf7, 0x70, 0x20, 0x3d, 0xce, 0x07, 0xd2, 0xbe, 0x82, 0xa0, 0x4b, 0x3e,
  0xdc, 0xf3, 0x25, 0xbe, 0x1e, 0x98, 0x1f, 0x3e, 0x07, 0xca, 0x73, 0x3c,
  0x6b, 0x63, 0x8f, 0xbd, 0x6f, 0xc7, 0x8a, 0x3e, 0x26, 0x69, 0x86, 0x3d,
  0x5e, 0xe4, 0x66, 0xbe, 0x14, 0xdd, 0xe5, 0x3c, 0x63, 0xfe, 0x1c, 0x3e,
  0xf3, 0xbf, 0xc4, 0xbd, 0x24, 0x34, 0xa9, 0x3d, 0x0c, 0xf6, 0xa3, 0x3d,
  0x8c, 0x14, 0x7b, 0x3e, 0xba, 0x59, 0x22, 0x3d, 0x5f, 0x46, 0x25, 0x3f,
  0x32, 0x2b, 0xfc, 0x3d, 0x9e, 0x38, 0xad, 0x3d, 0x8a, 0xac, 0xac, 0xbe,
  0xc1, 0x89, 0xb5, 0xbe, 0xc7, 0x3f, 0x79, 0x3d, 0x36, 0x7b, 0xd1, 0xbd,
  0xac, 0xf4, 0xc3, 0xbc, 0xb9, 0x3e, 0xbd, 0xbd, 0x13, 0xc0, 0xba, 0xbc,
  0xe1, 0xeb, 0xb0, 0xbd, 0xe2, 0xd4, 0xb3, 0x3d, 0x01, 0x40, 0x2d, 0x3e,
  0xe3, 0x32, 0x13, 0xbd, 0x19, 0x8c, 0xd6, 0x3d, 0xe4, 0xe3, 0x1d, 0xbd,
  0x96, 0xde, 0x66, 0xbc, 0x70, 0x21, 0xc0, 0x3d, 0x97, 0x28, 0xb9, 0x3d,
  0xc9, 0x2a, 0x98, 0x3d, 0xec, 0xc1, 0xbc, 0xbd, 0x8c, 0xe1, 0xbb, 0xbd,
  0xac, 0x22, 0x0b, 0x3e, 0x94, 0x51, 0x25, 0x3b, 0xb1, 0x7e, 0x9a, 0xbc,
  0xb1, 0xf7, 0x98, 0xbd, 0xc0, 0x30, 0x49, 0x3d, 0x11, 0x9e, 0xae, 0x3d,
  0x24, 0x24, 0x81, 0x3d, 0x89, 0x25, 0x44, 0xbd, 0x68, 0xe5, 0xf9, 0xbc,
  0x92, 0xbe, 0xf6, 0xbc, 0x71, 0xd5, 0x22, 0xbd, 0x55, 0x5c, 0x5c, 0xbc,
  0x7a, 0x54, 0x53, 0xbc, 0x24, 0xbc, 0x53, 0xbd, 0xdb, 0xd0, 0xb2, 0xbc,
  0x29, 0xd5, 0xbd, 0xbd, 0xcf, 0x01, 0x9b, 0xbd, 0xee, 0xdd, 0xe0, 0xbc,
  0x62, 0x42, 0x4d, 0x3e, 0x9f, 0x01, 0xb1, 0xbd, 0x8e, 0x9f, 0xbc, 0x3e,
  0x69, 0x55, 0xc4, 0xbe, 0xff, 0xf6, 0xfb, 0x3e, 0x34, 0xd0, 0x63, 0xbe,
  0x72, 0x2b, 0x47, 0x3e, 0xa0, 0x85, 0x19, 0x3e, 0xd1, 0x46, 0x7f, 0x3d,
  0x4e, 0x4d, 0xeb, 0xbc, 0x5c, 0x52, 0x99, 0x3e, 0xf9, 0x88, 0xdf, 0x3d,
  0xd8, 0x51, 0x5e, 0xbd, 0xc7, 0xc3, 0xd3, 0x3c, 0x09, 0xc7, 0xd3, 0x3d,
  0x36, 0xb2, 0x7b, 0x3e, 0x37, 0x2a, 0xe9, 0xbe, 0x39, 0x7e, 0x74, 0x3e,
  0xab, 0xfb, 0x0f, 0xbe, 0x0e, 0x57, 0xff, 0xbe, 0xf6, 0xd9, 0x1c, 0x3e,
  0x1f, 0x80, 0x2c, 0xbd, 0xd2, 0xd2, 0x27, 0x3f, 0x89, 0x38, 0x22, 0xbc,
  0xb0, 0x42, 0xae, 0x3e, 0xe5, 0xf7, 0x9f, 0x3e, 0x55, 0x4d, 0x5d, 0x3c,
  0xf8, 0x74, 0x1d, 0x3d, 0xcb, 0x40, 0x44, 0xbe, 0x6f, 0x00, 0xab, 0x3d,
  0x11, 0x86, 0xad, 0xbe, 0x55, 0x88, 0x29, 0xbe, 0xc7, 0x2e, 0x95, 0x3f,
  0xc2, 0xa8, 0xcb, 0xbd, 0x5a, 0xd4, 0x4f, 0xbe, 0x56, 0x39, 0x52, 0xbe,
  0x18, 0x0d, 0x39, 0xbd, 0xa8, 0x51, 0xf0, 0x3e, 0x28, 0xbb, 0x81, 0x3e,
  0x36, 0x3c, 0x48, 0x3f, 0x0d, 0xbd, 0x64, 0x3e, 0x1f, 0xc9, 0xbe, 0x3e,
  0x2a, 0x35, 0x0f, 0x3f, 0xc3, 0xd8, 0x97, 0x3d, 0x1e, 0x47, 0x33, 0xbe,
  0x06, 0x9d, 0x03, 0x3e, 0x73, 0x2c, 0xc8, 0xbe, 0x4f, 0xf7, 0x26, 0x3e,
  0x0b, 0x17, 0x8d, 0xbd, 0x3c, 0xac, 0x3f, 0x3f, 0xd5, 0xa1, 0x85, 0xbe,
  0x1b, 0xaa, 0x7d, 0xbe, 0xe3, 0xe0, 0x13, 0x3e, 0xb1, 0xf7, 0xc6, 0xbe,
  0xdf, 0x27, 0x76, 0x3e, 0x38, 0xe3, 0x2b, 0x3f, 0xd4, 0x62, 0xda, 0x3c,
  0x5a, 0x8a, 0xfb, 0xbc, 0x80, 0xe5, 0x42, 0xbf, 0xde, 0xeb, 0x39, 0xbd,
  0xa5, 0x87, 0xa8, 0xbe, 0xe3, 0x27, 0x41, 0x3e, 0x1c, 0xa1, 0x88, 0xbd,
  0x75, 0x5c, 0x84, 0x3e, 0x04, 0x8b, 0x91, 0xbe, 0x73, 0xfa, 0xac, 0xbe,
  0x83, 0xba, 0xe8, 0xbe, 0x33, 0x7a, 0xc4, 0x3e, 0xb5, 0x23, 0xd1, 0xbe,
  0x05, 0x21, 0x97, 0xbb, 0xe2, 0xa0, 0x17, 0x3e, 0x2d, 0xae, 0x87, 0xbe,
  0x91, 0xe1, 0xaf, 0x3e, 0xbe, 0x95, 0x2e, 0xbf, 0x31, 0x58, 0x9a, 0xbe,
  0x5c, 0x3e, 0x51, 0xbe, 0x37, 0xc0, 0x52, 0x3e, 0x46, 0xf3, 0xd0, 0xbe,
  0x86, 0xc4, 0x02, 0xbf, 0xf8, 0x0f, 0x29, 0xbe, 0xd8, 0xe5, 0xa4, 0x3e,
  0xbc, 0x44, 0x8b, 0xbe, 0x60, 0x5e, 0x8c, 0x3e, 0x24, 0xd7, 0xcf, 0x3e,
  0xac, 0xf9, 0xe5, 0xbd, 0x97, 0xd5, 0xfd, 0xbe, 0xf2, 0xd7, 0x08, 0xbf,
  0x3f, 0x81, 0x1c, 0x3e, 0x19, 0xb6, 0x1d, 0xbe, 0x3e, 0xd4, 0x36, 0x3e,
  0x72, 0x2d, 0xa9, 0x3e, 0xc7, 0xe6, 0x82, 0x3e, 0xf1, 0xeb, 0x6f, 0x3e,
  0xf9, 0x1b, 0xe4, 0xbd, 0xc6, 0x9e, 0x5b, 0x3e, 0xeb, 0xb8, 0x30, 0xbe,
  0xb8, 0x08, 0x6a, 0xbe, 0x71, 0x19, 0x6a, 0xbd, 0x50, 0xef, 0x61, 0x3e,
  0xd9, 0xe9, 0xc0, 0x3c, 0x02, 0xde, 0x85, 0xbe, 0xae, 0x90, 0x83, 0x3d,
  0x99, 0x1c, 0x13, 0xbf, 0x89, 0x85, 0xd0, 0x3d, 0x17, 0x4a, 0x89, 0x3e,
  0x2a, 0xfe, 0x5b, 0x3e, 0x1b, 0x8c, 0x82, 0x3e, 0xf9, 0x74, 0x1d, 0xbe,
  0xde, 0xa0, 0x31, 0x3d, 0x0a, 0xa9, 0x44, 0xbf, 0xa5, 0x81, 0xab, 0xbe,
  0x04, 0xd9, 0xc1, 0x3d, 0xa1, 0x04, 0xf7, 0x3d, 0x0a, 0x14, 0xa2, 0x3c,
  0xe2, 0x16, 0xfc, 0x3d, 0xf3, 0x0d, 0x20, 0xbe, 0x67, 0x57, 0xc6, 0x3c,
  0x84, 0xb4, 0x05, 0x3f, 0xd7, 0x65, 0xfb, 0xbd, 0x98, 0x60, 0x09, 0x3d,
  0x43, 0xae, 0x99, 0xbe, 0xc0, 0xd7, 0x12, 0xbd, 0xad, 0x12, 0xc8, 0xbe,
  0xaa, 0x4c, 0x97, 0x3e, 0x15, 0x00, 0xbb, 0x3d, 0x1c, 0x7e, 0x3b, 0x3d,
  0x41, 0x70, 0x40, 0xbe, 0xfd, 0x3b, 0x9a, 0xbc, 0x11, 0xd9, 0x98, 0xbd,
  0xdb, 0x3e, 0x34, 0xbd, 0x89, 0x4c, 0x46, 0xbb, 0x53, 0xc7, 0xb8, 0x3c,
  0x16, 0x05, 0x5d, 0xbe, 0x88, 0x0a, 0xc5, 0x3b, 0xe2, 0x63, 0x26, 0xbc,
  0x44, 0xe3, 0xaa, 0xbc, 0xb8, 0xd2, 0x57, 0x3e, 0xfd, 0x66, 0x9f, 0x3c,
  0xf6, 0x4f, 0x4b, 0x3e, 0x2c, 0x68, 0x40, 0x3d, 0xaf, 0xc4, 0x1a, 0x3d,
  0x90, 0x4a, 0xc9, 0x3c, 0xdc, 0xd9, 0x93, 0xbd, 0xa3, 0xa1, 0x8e, 0xbc,
  0xa9, 0xce, 0x5b, 0xbd, 0x1e, 0xd9, 0xa5, 0xbd, 0xd4, 0xa9, 0x15, 0x3d,
  0xcc, 0x01, 0x9b, 0x3d, 0xf7, 0xdb, 0xdc, 0x3d, 0x65, 0x17, 0x38, 0xbd,
  0x1f, 0x14, 0xb5, 0x3d, 0xa3, 0x73, 0xca, 0x3c, 0x12, 0x2b, 0x8c, 0xbe,
  0x34, 0x5f, 0xa9, 0xbc, 0x66, 0x3d, 0x7d, 0xbc, 0x11, 0x48, 0xf3, 0x3d,
  0xa2, 0x7b, 0xe0, 0x3d, 0xd3, 0x25, 0xa4, 0x3d, 0x02, 0x75, 0x64, 0xbe,
  0x90, 0xc6, 0x71, 0x3d, 0x5e, 0xa9, 0x94, 0xbd, 0xe8, 0x9d, 0xd4, 0x3d,
  0x4b, 0x19, 0x7f, 0xba, 0x2c, 0xd4, 0x04, 0xbf, 0x40, 0xc1, 0x56, 0xbe,
  0x4c, 0x4c, 0x1c, 0x3e, 0xe9, 0x64, 0x79, 0x3e, 0xc1, 0x1b, 0xb8, 0xbd,
  0x6c, 0x92, 0x0f, 0xbd, 0x9b, 0x05, 0x6a, 0x3e, 0x88, 0x8f, 0x36, 0x3f,
  0x56, 0xe1, 0xdb, 0x3e, 0x34, 0xc3, 0x5f, 0xbe, 0x9d, 0x22, 0x9c, 0xbe,
  0x82, 0x0b, 0x05, 0x3e, 0xb0, 0xe4, 0xee, 0x3e, 0xfd, 0xf4, 0x9f, 0xbd,
  0xaf, 0x96, 0x18, 0xbe, 0xb6, 0xa6, 0x3a, 0xbf, 0x49, 0x64, 0x6c, 0xbc,
  0xcd, 0x4b, 0x2c, 0xbd, 0x86, 0x01, 0x11, 0xbf, 0xa5, 0xde, 0x75, 0x3e,
  0xe3, 0x6e, 0xaf, 0xbe, 0x67, 0x87, 0x30, 0xbe, 0xbd, 0x83, 0x6d, 0xbe,
  0x9e, 0x52, 0x17, 0x3f, 0x1f, 0xf5, 0x54, 0x3c, 0x0c, 0x87, 0x38, 0x3e,
  0x82, 0xc6, 0x67, 0xbe, 0x5e, 0xf6, 0x53, 0x3e, 0x56, 0x94, 0x8d, 0x3e,
  0xb9, 0xc0, 0xc4, 0x3e, 0x94, 0x50, 0x4b, 0xbe, 0xb9, 0x22, 0xa9, 0xbc,
  0x01, 0x19, 0xba, 0xbe, 0x72, 0xee, 0x80, 0x3d, 0x54, 0xce, 0xc1, 0x3d,
  0x84, 0xf8, 0x6e, 0xbe, 0xa9, 0x0d, 0x25, 0x3e, 0x11, 0x6a, 0x89, 0xbe,
  0xb8, 0xe6, 0x69, 0x3d, 0x2e, 0xb1, 0xd6, 0x3d, 0x16, 0x67, 0x66, 0x3b,
  0x2b, 0x3d, 0x0d, 0xbf, 0x3d, 0x87, 0xf2, 0x3d, 0x36, 0x0c, 0x81, 0x3e,
  0x48, 0x19, 0x30, 0x3f, 0x06, 0xe5, 0xb0, 0xbe, 0x5a, 0x15, 0x30, 0x3f,
  0x40, 0x08, 0x18, 0x3f, 0xa3, 0x6c, 0xa6, 0xbe, 0xaa, 0x75, 0x11, 0xbd,
  0x0f, 0x1e, 0x87, 0x3d, 0xac, 0x15, 0x10, 0x3f, 0xec, 0x0c, 0x13, 0xbe,
  0xe7, 0x8f, 0x1e, 0x3e, 0x65, 0x6f, 0xd0, 0x3e, 0xa8, 0x69, 0x1d, 0xbc,
  0x78, 0x8c, 0xbb, 0xbe, 0xcd, 0x43, 0xf2, 0xbe, 0xcf, 0x22, 0xf9, 0x3d,
  0x65, 0x15, 0xc4, 0xbe, 0x03, 0xa8, 0xdc, 0xbe, 0xbf, 0xad, 0x76, 0x3e,
  0x1d, 0x80, 0x51, 0xbc, 0xba, 0xd4, 0x99, 0x3e, 0xa5, 0xa0, 0x49, 0xbe,
  0x44, 0xae, 0xdc, 0x3e, 0xc0, 0x88, 0x6a, 0x3e, 0x35, 0xa0, 0xf7, 0x3d,
  0xf0, 0x46, 0xc4, 0xbc, 0x39, 0x0d, 0xcf, 0xbe, 0x26, 0xc3, 0xb5, 0xbe,
  0x83, 0xd7, 0xc0, 0x3d, 0xdb, 0xd9, 0x9b, 0x3e, 0x79, 0x71, 0x0d, 0xbe,
  0xf9, 0x58, 0xfa, 0xbd, 0x91, 0xba, 0x62, 0xbe, 0x2d, 0x31, 0xe5, 0x3e,
  0xaf, 0x75, 0x11, 0xbe, 0x0b, 0x0d, 0x64, 0x3d, 0x97, 0x85, 0x60, 0x3e,
  0xa3, 0x48, 0x92, 0xbe, 0x64, 0x0a, 0xf0, 0x3d, 0x13, 0x72, 0xc7, 0xbd,
  0x28, 0xd3, 0xec, 0xbe, 0xa4, 0xb6, 0xd8, 0xbb, 0xff, 0x0e, 0x9a, 0x3e,
  0xf0, 0xc8, 0x8e, 0xbe, 0x1c, 0x1b, 0x07, 0x3d, 0x4c, 0xb4, 0x1b, 0xbf,
  0x58, 0x90, 0x24, 0xbd, 0xe8, 0xd7, 0xf2, 0xbd, 0x81, 0xc1, 0xe2, 0x3e,
  0xf1, 0x14, 0x50, 0xbd, 0xed, 0xbc, 0x48, 0xbb, 0xe1, 0xf1, 0x26, 0x3c,
  0xb3, 0xcd, 0xbf, 0xbd, 0x72, 0xb2, 0xb1, 0xbd, 0xb7, 0x13, 0xb8, 0xbd,
  0xaf, 0x09, 0x01, 0x3d, 0x01, 0x4f, 0x08, 0xbf, 0xab, 0xd1, 0x12, 0x3d,
  0x41, 0x2f, 0xfc, 0x3c, 0xf8, 0x47, 0x3e, 0xbe, 0xa7, 0x16, 0x19, 0xbe,
  0xa2, 0xd0, 0xe6, 0xbd, 0xf8, 0xf7, 0x62, 0x3d, 0x1a, 0x79, 0x20, 0xbf,
  0xaf, 0xa6, 0xf4, 0xbd, 0x84, 0xcf, 0xb8, 0x3c, 0x23, 0xdb, 0x7b, 0xbd,
  0xb6, 0x37, 0x0e, 0xbd, 0xd4, 0x1b, 0x00, 0x3e, 0xd0, 0x73, 0xb3, 0x3d,
  0xca, 0xb5, 0x23, 0x3c, 0xef, 0x23, 0xa7, 0xbd, 0x8d, 0xc3, 0x88, 0xbe,
  0x7f, 0x82, 0xa3, 0xbc, 0xd2, 0x7a, 0xe8, 0xbd, 0xf6, 0x73, 0x37, 0x3d,
  0x0a, 0x47, 0xbb, 0x3d, 0xa0, 0x7e, 0xf5, 0xbd, 0xfc, 0x23, 0x05, 0xbb,
  0xac, 0xaf, 0x12, 0xbe, 0x67, 0x5e, 0x1f, 0x3e, 0x11, 0x68, 0xf2, 0xbc,
  0xc7, 0x2d, 0x27, 0xbe, 0xab, 0x2f, 0xc8, 0xbd, 0x7a, 0xcd, 0x95, 0xbd,
  0x7b, 0x48, 0x0c, 0x3f, 0xa8, 0x14, 0x53, 0xbf, 0x88, 0x0b, 0xb2, 0xbc,
  0x08, 0x97, 0x94, 0x3c, 0xab, 0xab, 0xd8, 0xbd, 0xf6, 0x2d, 0x11, 0x3f,
  0x0c, 0x64, 0x99, 0x3b, 0xf8, 0x51, 0xc7, 0xbd, 0x15, 0xeb, 0xbb, 0xbd,
  0x12, 0x5b, 0xa4, 0xbe, 0xde, 0xaa, 0x16, 0x3c, 0x2d, 0xbe, 0x13, 0xbf,
  0x1b, 0xaf, 0xb9, 0x3e, 0xd5, 0x41, 0x55, 0x3e, 0xf5, 0x66, 0x70, 0xbd,
  0x98, 0x6c, 0x3c, 0x3f, 0xea, 0x1e, 0x84, 0x3e, 0xf3, 0xf8, 0x81, 0x3d,
  0x74, 0xeb, 0x27, 0x3e, 0xef, 0xa9, 0x66, 0xbd, 0x5e, 0xc2, 0xc6, 0xbd,
  0x2b, 0x46, 0x1b, 0xbf, 0x82, 0x0a, 0x92, 0x3c, 0xb0, 0xa1, 0xb3, 0xbd,
  0xf5, 0xcf, 0x4d, 0x3e, 0xb9, 0x23, 0x9c, 0x3e, 0xca, 0xfb, 0x39, 0xbe,
  0xca, 0x35, 0x8d, 0xbb, 0x31, 0x59, 0x2a, 0x3d, 0x8b, 0xc5, 0xca, 0xbe,
  0xd1, 0xb5, 0x39, 0x3e, 0x34, 0x25, 0xc3, 0xbb, 0xbd, 0xe2, 0x49, 0xbd,
  0x04, 0x35, 0x2b, 0xbe, 0x9f, 0x3b, 0xc8, 0x3e, 0xb6, 0x00, 0xf6, 0xbc,
  0x49, 0x9e, 0xed, 0xbe, 0x88, 0xb8, 0x28, 0x3e, 0x9d, 0x57, 0xc5, 0xbb,
  0xe4, 0x24, 0xab, 0xbd, 0xfa, 0x57, 0xdf, 0x3d, 0xa6, 0xfd, 0x46, 0xbe,
  0x9e, 0x4c, 0x42, 0x3d, 0xca, 0x58, 0x1f, 0x3f, 0x46, 0x32, 0xb2, 0x3e,
  0xed, 0xc2, 0x5a, 0x3e, 0xaa, 0xdf, 0xa7, 0xbe, 0x3d, 0xf4, 0xb9, 0x3e,
  0xb6, 0x51, 0x35, 0x3f, 0xe9, 0x78, 0x49, 0x3f, 0x5c, 0x72, 0x55, 0x3c,
  0x9c, 0x9a, 0x7c, 0xbe, 0x2f, 0x26, 0x3a, 0xbe, 0xbd, 0x2b, 0x4d, 0x3f,
  0x8c, 0x3c, 0x28, 0xbd, 0x03, 0x5a, 0x40, 0xbd, 0xd2, 0xd5, 0x84, 0xbc,
  0x07, 0x22, 0xb7, 0x3d, 0xdf, 0xb4, 0x80, 0xbe, 0x05, 0xf4, 0x1a, 0x3f,
  0xf1, 0x67, 0xea, 0x3d, 0xae, 0x00, 0x33, 0xbf, 0x54, 0xf5, 0x88, 0xbd,
  0xc8, 0xae, 0xb6, 0x3e, 0xd3, 0x86, 0x71, 0xbe, 0xb5, 0x14, 0x02, 0x3e,
  0x9a, 0x3d, 0x1d, 0xbf, 0x2c, 0xe0, 0xc1, 0xbe, 0x51, 0xa9, 0xde, 0xbe,
  0x83, 0x74, 0x1a, 0xbf, 0x04, 0x4f, 0x90, 0x3c, 0x5d, 0xce, 0xeb, 0x3e,
  0x4b, 0x30, 0xae, 0x3e, 0x43, 0x47, 0x7a, 0xbe, 0x9d, 0x1a, 0xc5, 0x3e,
  0x10, 0xbd, 0xda, 0x3e, 0xb7, 0x46, 0x79, 0xbd, 0x44, 0xf3, 0x0e, 0x3e,
  0xc1, 0x15, 0x95, 0xbe, 0x54, 0xb2, 0xe4, 0xbe, 0x8c, 0x56, 0x31, 0xbf,
  0xe5, 0x2c, 0x74, 0x3e, 0xcf, 0x46, 0x36, 0xbe, 0xb5, 0xff, 0xb4, 0x3e,
  0xeb, 0x8c, 0x52, 0x3e, 0xac, 0x37, 0x98, 0x3e, 0xde, 0xa7, 0x01, 0xbe,
  0x55, 0x29, 0xd9, 0x3d, 0xcc, 0x58, 0xca, 0xbe, 0x52, 0x30, 0xc6, 0x3e,
  0xb3, 0x30, 0x5f, 0xbe, 0x94, 0x4d, 0x61, 0xbf, 0x69, 0xd7, 0xd1, 0xbd,
  0xe8, 0x9b, 0x67, 0xbc, 0xb1, 0x8a, 0x35, 0x3e, 0x01, 0x13, 0xb6, 0xbc,
  0x51, 0x9f, 0x98, 0xba, 0x8d, 0x39, 0x80, 0x3d, 0x9f, 0xce, 0x1d, 0xbd,
  0x8f, 0xa0, 0xae, 0xbe, 0x84, 0x22, 0x97, 0xbd, 0xa4, 0x8c, 0xb2, 0xbc,
  0x79, 0x92, 0x8c, 0xbe, 0x3b, 0xd8, 0xa6, 0x3d, 0x9d, 0xd0, 0x00, 0x3e,
  0xe7, 0xb0, 0x40, 0xbd, 0x5b, 0xf5, 0x43, 0xbf, 0x1b, 0xc0, 0x3f, 0x3e,
  0x02, 0x6a, 0x0f, 0xbd, 0x51, 0x70, 0x96, 0xbd, 0xf4, 0x64, 0xd8, 0xbe,
  0xf0, 0xa8, 0xde, 0xbe, 0x83, 0xc6, 0x56, 0xbe, 0xf0, 0xd2, 0x2a, 0x3e,
  0x32, 0x13, 0x1c, 0xbe, 0x84, 0xf7, 0xb6, 0x3e, 0x6c, 0x78, 0xce, 0xbc,
  0xcd, 0x66, 0xbd, 0x3c, 0xf6, 0x0f, 0x63, 0x3d, 0x13, 0x8b, 0x8a, 0xbe,
  0xf7, 0x6b, 0x5d, 0xbe, 0x46, 0x7c, 0xdb, 0xbd, 0x6c, 0xc6, 0xc0, 0x3c,
  0xe7, 0x78, 0x01, 0xbe, 0xa0, 0x41, 0x44, 0x3e, 0x10, 0xbe, 0xd6, 0xbe,
  0xac, 0xb0, 0xea, 0x3e, 0xad, 0x56, 0x9a, 0x3e, 0x91, 0xf2, 0x9f, 0xbd,
  0x60, 0x24, 0x9f, 0x3d, 0x0a, 0x00, 0x24, 0x3e, 0xf7, 0x06, 0x65, 0x3d,
  0x07, 0x65, 0xda, 0xbe, 0x4a, 0x92, 0xc1, 0x3d, 0x98, 0x63, 0x49, 0xbe,
  0x31, 0xc1, 0xcc, 0xbe, 0x9c, 0x13, 0x02, 0xbf, 0x48, 0xaa, 0x0b, 0x3f,
  0x93, 0xf4, 0x2f, 0xbe, 0x56, 0x20, 0x9f, 0x3e, 0x8d, 0xc1, 0x9a, 0xbd,
  0xb9, 0x12, 0xcd, 0x3e, 0xd8, 0x86, 0x5d, 0xbe, 0x1c, 0xa1, 0x84, 0x3c,
  0x6e, 0x63, 0x9e, 0xbe, 0x29, 0x81, 0x8d, 0x3e, 0xcf, 0x7e, 0x80, 0xbd,
  0x40, 0x3e, 0x50, 0x3f, 0x5b, 0x63, 0xe7, 0xbe, 0x97, 0x01, 0x56, 0x3f,
  0x83, 0xdd, 0xd9, 0x3e, 0xe4, 0xfb, 0x2c, 0x3c, 0x2c, 0x56, 0xec, 0x3d,
  0x4c, 0xb3, 0x48, 0x3e, 0xae, 0x66, 0x80, 0x3e, 0xf4, 0x3a, 0x5b, 0x3e,
  0x9b, 0x6b, 0x46, 0xbe, 0x85, 0xe8, 0xb8, 0xbe, 0xb8, 0xc3, 0x99, 0xbc,
  0x61, 0xb3, 0x2b, 0xbe, 0xbc, 0x97, 0x24, 0xbd, 0xf4, 0x3f, 0x28, 0xbe,
  0x19, 0x79, 0x08, 0x3f, 0x65, 0xef, 0xdc, 0xbd, 0x78, 0x94, 0x29, 0xbd,
  0xe9, 0x89, 0xcd, 0xbd, 0xb2, 0xbb, 0xa3, 0x3e, 0x9a, 0xcd, 0x00, 0x3f,
  0x18, 0xb6, 0x84, 0xbd, 0x55, 0x89, 0x31, 0xbe, 0xb9, 0x29, 0xfa, 0x3e,
  0x0d, 0xe4, 0x2d, 0xbe, 0x74, 0xd2, 0xd9, 0x3e, 0xce, 0xde, 0x52, 0x3e,
  0x96, 0xa5, 0x8f, 0xbe, 0x4c, 0xef, 0xff, 0xbe, 0x2c, 0x00, 0x91, 0xbc,
  0x0e, 0x53, 0x8a, 0x3e, 0x2f, 0xe1, 0xd8, 0x3e, 0xae, 0x96, 0xc8, 0xbe,
  0x52, 0x19, 0xe3, 0xbe, 0x0b, 0xe9, 0xb2, 0xbd, 0xa4, 0xda, 0x4c, 0xbe,
  0x25, 0x96, 0x0e, 0x3f, 0xc5, 0xd6, 0xcc, 0xbe, 0xaf, 0xef, 0x1a, 0x3e,
  0x1e, 0xc9, 0xcc, 0xbe, 0xaa, 0x25, 0xf0, 0x3e, 0x46, 0xfd, 0xff, 0xff,
  0x04, 0x00, 0x00, 0x00, 0x40, 0x02, 0x00, 0x00, 0x2a, 0x80, 0xad, 0xbb,
  0x41, 0x02, 0x30, 0x3a, 0x89, 0x44, 0x96, 0x3c, 0xbf, 0x6f, 0xe1, 0x3a,
  0x4f, 0x8f, 0x03, 0xb9, 0xeb, 0x57, 0xf2, 0x3b, 0x92, 0x9d, 0x24, 0x3d,
  0xbc, 0x73, 0x66, 0x3c, 0xa9, 0xa3, 0xb6, 0xbc, 0xd7, 0x4b, 0x29, 0xbc,
  0xea, 0x74, 0xa6, 0x3a, 0x71, 0xb8, 0x76, 0x3b, 0x8c, 0x87, 0x22, 0x3b,
  0x9a, 0xc7, 0xee, 0xbc, 0xbc, 0xc2, 0x43, 0x3a, 0x5a, 0x6f, 0x27, 0x3b,
  0xb2, 0xaa, 0x85, 0x3c, 0x56, 0xe9, 0x80, 0xbc, 0x8a, 0x39, 0x8d, 0xbb,
  0xa4, 0x5e, 0x8f, 0x3c, 0x52, 0x02, 0x8c, 0xbc, 0x37, 0xba, 0x06, 0x3c,
  0xe7, 0x44, 0x8a, 0xbb, 0x0a, 0xd1, 0x3f, 0x3c, 0x4b, 0x4d, 0x12, 0x3c,
  0xa0, 0x3e, 0xdf, 0x3b, 0x6a, 0xbd, 0xf0, 0x3b, 0x5c, 0xe1, 0xa4, 0xbc,
  0xbb, 0xc3, 0x8b, 0xbb, 0xcf, 0xf7, 0x0d, 0xbc, 0xd9, 0xbc, 0xb0, 0xbc,
  0xa3, 0x2e, 0x80, 0x3c, 0x3f, 0xc0, 0xa6, 0xbc, 0x49, 0xd8, 0xbc, 0x3b,
  0x31, 0x36, 0x8a, 0x3a, 0x66, 0xfb, 0x0c, 0x3c, 0x4c, 0xcd, 0x4d, 0xbb,
  0x4b, 0x4d, 0x4a, 0xbd, 0x1f, 0x92, 0x51, 0xba, 0x42, 0x5f, 0xe9, 0x3b,
  0x08, 0x8f, 0x41, 0xbb, 0xd6, 0x3e, 0xa7, 0xbc, 0x17, 0x53, 0xce, 0x3b,
  0x7f, 0x84, 0x6f, 0xbc, 0xb0, 0x34, 0x14, 0x39, 0x67, 0xc0, 0x9d, 0x3c,
  0xe4, 0x73, 0x12, 0x3c, 0x0e, 0xf5, 0x2e, 0xbc, 0xb4, 0x97, 0x9a, 0xbd,
  0xc6, 0x5e, 0x3d, 0xbe, 0x4a, 0xa4, 0x01, 0xbf, 0x17, 0xf3, 0x9c, 0xba,
  0xd4, 0x18, 0xcc, 0xbb, 0xdc, 0xd6, 0x05, 0x3e, 0x39, 0x05, 0x1e, 0xbc,
  0x43, 0x1f, 0x49, 0xbe, 0x32, 0x07, 0x04, 0x3d, 0x72, 0xbb, 0x25, 0x3e,
  0xc6, 0x30, 0xbe, 0x3d, 0x95, 0x5d, 0xa2, 0x3e, 0xd8, 0x7b, 0x6a, 0xbe,
  0x8c, 0xfa, 0x57, 0x3d, 0xbc, 0x95, 0xa2, 0x3e, 0xab, 0x2a, 0x50, 0xbe,
  0x37, 0xaf, 0xfb, 0x3c, 0xfc, 0xe9, 0x8c, 0x3d, 0x05, 0x26, 0x06, 0xbe,
  0x29, 0xf2, 0x19, 0x3d, 0x72, 0x6d, 0x71, 0xbe, 0x94, 0xc2, 0x4e, 0x3e,
  0x85, 0x2a, 0xb1, 0x3c, 0x00, 0x10, 0x82, 0xbe, 0xde, 0xf3, 0x1c, 0xbd,
  0xbc, 0xd4, 0xbe, 0x3d, 0x2a, 0xed, 0xb8, 0x3e, 0xf8, 0x78, 0xc6, 0x3b,
  0x68, 0xf0, 0x9b, 0x3c, 0x01, 0xa2, 0xc8, 0x3e, 0x72, 0x2c, 0xee, 0xba,
  0xec, 0x86, 0x3e, 0x3c, 0xde, 0x2a, 0xd3, 0x39, 0x88, 0x64, 0x9e, 0xbd,
  0x99, 0x4d, 0x01, 0xbe, 0x36, 0x26, 0x94, 0x3d, 0x40, 0x2c, 0x1f, 0xbd,
  0xc6, 0x40, 0x47, 0x3b, 0x07, 0x3f, 0x8d, 0x3d, 0x26, 0xa3, 0x93, 0xbd,
  0x7d, 0x70, 0x62, 0x3e, 0x75, 0x41, 0x6c, 0x3b, 0x0d, 0x0a, 0x75, 0xbd,
  0x19, 0xf1, 0xef, 0x3e, 0xe9, 0xf8, 0x52, 0xbe, 0xbc, 0xa0, 0xa4, 0xbc,
  0x24, 0x29, 0x50, 0xbe, 0x30, 0x73, 0x89, 0x3d, 0x37, 0x71, 0x3d, 0x3e,
  0xec, 0xe3, 0x0a, 0xbd, 0xa3, 0xba, 0x2b, 0x3e, 0x41, 0x07, 0x98, 0xbb,
  0x08, 0x3b, 0x2b, 0xbe, 0xef, 0x30, 0x03, 0xbe, 0xb0, 0x6d, 0xc4, 0x3a,
  0xb2, 0xab, 0x39, 0xbd, 0x47, 0xc6, 0x43, 0xbb, 0xcb, 0x44, 0xc1, 0xbd,
  0x20, 0x33, 0xa4, 0xbb, 0x19, 0xc1, 0xe3, 0x3d, 0x15, 0x30, 0xc8, 0x3c,
  0x17, 0x64, 0x0a, 0xbc, 0xbd, 0xe3, 0xab, 0x3c, 0x37, 0xce, 0xb6, 0xbd,
  0x3a, 0xc0, 0xc5, 0xbe, 0xbb, 0xfd, 0x91, 0x3a, 0xb7, 0x75, 0x47, 0x3e,
  0x0e, 0x10, 0x48, 0xbd, 0xc2, 0xc6, 0x8e, 0xbe, 0xe2, 0xe5, 0x41, 0xbc,
  0x6c, 0xbd, 0xfb, 0xbe, 0x84, 0x58, 0xe8, 0x3c, 0x1f, 0x5f, 0x01, 0xbd,
  0x74, 0x98, 0x47, 0xbd, 0x12, 0x10, 0xe4, 0x3b, 0x2c, 0x8f, 0x49, 0xbc,
  0xea, 0x50, 0x41, 0x3b, 0x9f, 0x1e, 0x15, 0x3c, 0x17, 0x82, 0xae, 0xbc,
  0x21, 0xaa, 0xda, 0xbd, 0xee, 0x04, 0x3b, 0xbc, 0x3e, 0x43, 0x27, 0x3d,
  0xeb, 0x13, 0x2d, 0x3c, 0x6b, 0xc5, 0x4e, 0xbd, 0x5b, 0x57, 0xfc, 0xbd,
  0xfd, 0x7b, 0xe1, 0x3b, 0x4b, 0xc4, 0x84, 0xbd, 0x12, 0xfc, 0xdb, 0x3b,
  0x65, 0x1b, 0x29, 0x3c, 0xdc, 0x20, 0x8c, 0xbd, 0xc1, 0xef, 0xc2, 0x3c,
  0xfa, 0xb7, 0xb9, 0x3c, 0x95, 0xb9, 0xc8, 0xba, 0x8d, 0x1a, 0xfe, 0xbd,
  0x95, 0x7e, 0x50, 0xbc, 0x18, 0xeb, 0x4b, 0x3d, 0x92, 0xff, 0xff, 0xff,
  0x04, 0x00, 0x00, 0x00, 0x60, 0x00, 0x00, 0x00, 0x54, 0xd4, 0x27, 0x39,
  0x18, 0x88, 0x9b, 0xbd, 0xc8, 0xf4, 0x8d, 0xbe, 0x51, 0x31, 0x92, 0xbd,
  0x33, 0x4c, 0x7f, 0xbc, 0x46, 0xe2, 0x07, 0x3e, 0x4b, 0x40, 0x2c, 0x3d,
  0x5c, 0xf2, 0x10, 0x3d, 0xb0, 0x87, 0xb5, 0x3d, 0x05, 0x9d, 0x4d, 0x3d,
  0xc8, 0x2a, 0xd8, 0x3b, 0xd6, 0xb2, 0xa7, 0x3b, 0x46, 0x75, 0x2a, 0xbd,
  0xc3, 0xed, 0x84, 0xbd, 0x50, 0x58, 0x09, 0x3d, 0x72, 0xcd, 0x3e, 0x3e,
  0xd5, 0xd1, 0x01, 0xbe, 0x75, 0x35, 0xc9, 0x3d, 0x30, 0x98, 0x92, 0x3d,
  0x18, 0x55, 0x72, 0x3e, 0xa9, 0xd6, 0x9c, 0xbe, 0x69, 0x28, 0x60, 0x3e,
  0x82, 0xe3, 0x81, 0x3e, 0x36, 0x6b, 0x3c, 0xbe, 0x00, 0x00, 0x06, 0x00,
  0x08, 0x00, 0x04, 0x00, 0x06, 0x00, 0x00, 0x00, 0x04, 0x00, 0x00, 0x00,
  0x18, 0x00, 0x00, 0x00, 0x27, 0xaa, 0xe5, 0xbe, 0x77, 0xbf, 0x2b, 0x3d,
  0xbe, 0xe1, 0xd3, 0xbd, 0x31, 0xcb, 0xdc, 0xbd, 0xd3, 0x91, 0x67, 0x3d,
  0x4b, 0x55, 0x03, 0x3c, 0x4c, 0xfa, 0xff, 0xff, 0x50, 0xfa, 0xff, 0xff,
  0x0f, 0x00, 0x00, 0x00, 0x4d, 0x4c, 0x49, 0x52, 0x20, 0x43, 0x6f, 0x6e,
  0x76, 0x65, 0x72, 0x74, 0x65, 0x64, 0x2e, 0x00, 0x01, 0x00, 0x00, 0x00,
  0x14, 0x00, 0x00, 0x00, 0x00, 0x00, 0x0e, 0x00, 0x18, 0x00, 0x14, 0x00,
  0x10, 0x00, 0x0c, 0x00, 0x08, 0x00, 0x04, 0x00, 0x0e, 0x00, 0x00, 0x00,
  0x14, 0x00, 0x00, 0x00, 0x1c, 0x00, 0x00, 0x00, 0x34, 0x01, 0x00, 0x00,
  0x38, 0x01, 0x00, 0x00, 0x3c, 0x01, 0x00, 0x00, 0x04, 0x00, 0x00, 0x00,
  0x6d, 0x61, 0x69, 0x6e, 0x00, 0x00, 0x00, 0x00, 0x05, 0x00, 0x00, 0x00,
  0xd8, 0x00, 0x00, 0x00, 0xa4, 0x00, 0x00, 0x00, 0x60, 0x00, 0x00, 0x00,
  0x3c, 0x00, 0x00, 0x00, 0x04, 0x00, 0x00, 0x00, 0x4a, 0xff, 0xff, 0xff,
  0x10, 0x00, 0x00, 0x00, 0x00, 0x00, 0x00, 0x08, 0x10, 0x00, 0x00, 0x00,
  0x14, 0x00, 0x00, 0x00, 0x3a, 0xff, 0xff, 0xff, 0x00, 0x00, 0x00, 0x01,
  0x01, 0x00, 0x00, 0x00, 0x0b, 0x00, 0x00, 0x00, 0x03, 0x00, 0x00, 0x00,
  0x0a, 0x00, 0x00, 0x00, 0x03, 0x00, 0x00, 0x00, 0x01, 0x00, 0x00, 0x00,
  0xaa, 0xff, 0xff, 0xff, 0x0c, 0x00, 0x00, 0x00, 0x10, 0x00, 0x00, 0x00,
  0x01, 0x00, 0x00, 0x00, 0x01, 0x00, 0x00, 0x00, 0x0a, 0x00, 0x00, 0x00,
  0x01, 0x00, 0x00, 0x00, 0x09, 0x00, 0x00, 0x00, 0x9e, 0xff, 0xff, 0xff,
  0x10, 0x00, 0x00, 0x00, 0x00, 0x00, 0x00, 0x08, 0x10, 0x00, 0x00, 0x00,
  0x14, 0x00, 0x00, 0x00, 0x8e, 0xff, 0xff, 0xff, 0x00, 0x00, 0x00, 0x01,
  0x01, 0x00, 0x00, 0x00, 0x09, 0x00, 0x00, 0x00, 0x03, 0x00, 0x00, 0x00,
  0x08, 0x00, 0x00, 0x00, 0x04, 0x00, 0x00, 0x00, 0x02, 0x00, 0x00, 0x00,
  0x00, 0x00, 0x0a, 0x00, 0x10, 0x00, 0x0c, 0x00, 0x08, 0x00, 0x04, 0x00,
  0x0a, 0x00, 0x00, 0x00, 0x0c, 0x00, 0x00, 0x00, 0x10, 0x00, 0x00, 0x00,
  0x01, 0x00, 0x00, 0x00, 0x01, 0x00, 0x00, 0x00, 0x08, 0x00, 0x00, 0x00,
  0x01, 0x00, 0x00, 0x00, 0x07, 0x00, 0x00, 0x00, 0x00, 0x00, 0x0e, 0x00,
  0x16, 0x00, 0x00, 0x00, 0x10, 0x00, 0x0c, 0x00, 0x0b, 0x00, 0x04, 0x00,
  0x0e, 0x00, 0x00, 0x00, 0x1c, 0x00, 0x00, 0x00, 0x00, 0x00, 0x00, 0x08,
  0x1c, 0x00, 0x00, 0x00, 0x20, 0x00, 0x00, 0x00, 0x00, 0x00, 0x0a, 0x00,
  0x08, 0x00, 0x00, 0x00, 0x00, 0x00, 0x07, 0x00, 0x0a, 0x00, 0x00, 0x00,
  0x00, 0x00, 0x00, 0x01, 0x01, 0x00, 0x00, 0x00, 0x07, 0x00, 0x00, 0x00,
  0x03, 0x00, 0x00, 0x00, 0x00, 0x00, 0x00, 0x00, 0x05, 0x00, 0x00, 0x00,
  0x06, 0x00, 0x00, 0x00, 0x01, 0x00, 0x00, 0x00, 0x0b, 0x00, 0x00, 0x00,
  0x01, 0x00, 0x00, 0x00, 0x00, 0x00, 0x00, 0x00, 0x0c, 0x00, 0x00, 0x00,
  0x14, 0x04, 0x00, 0x00, 0xc0, 0x03, 0x00, 0x00, 0x84, 0x03, 0x00, 0x00,
  0x44, 0x03, 0x00, 0x00, 0x04, 0x03, 0x00, 0x00, 0x84, 0x02, 0x00, 0x00,
  0x08, 0x02, 0x00, 0x00, 0x88, 0x01, 0x00, 0x00, 0x2c, 0x01, 0x00, 0x00,
  0xac, 0x00, 0x00, 0x00, 0x50, 0x00, 0x00, 0x00, 0x04, 0x00, 0x00, 0x00,
  0x32, 0xfc, 0xff, 0xff, 0x00, 0x00, 0x00, 0x01, 0x10, 0x00, 0x00, 0x00,
  0x10, 0x00, 0x00, 0x00, 0x0c, 0x00, 0x00, 0x00, 0x28, 0x00, 0x00, 0x00,
  0x1c, 0xfc, 0xff, 0xff, 0x19, 0x00, 0x00, 0x00, 0x53, 0x74, 0x61, 0x74,
  0x65, 0x66, 0x75, 0x6c, 0x50, 0x61, 0x72, 0x74, 0x69, 0x74, 0x69, 0x6f,
  0x6e, 0x65, 0x64, 0x43, 0x61, 0x6c, 0x6c, 0x3a, 0x30, 0x00, 0x00, 0x00,
  0x02, 0x00, 0x00, 0x00, 0x01, 0x00, 0x00, 0x00, 0x06, 0x00, 0x00, 0x00,
  0x7a, 0xfc, 0xff, 0xff, 0x00, 0x00, 0x00, 0x01, 0x10, 0x00, 0x00, 0x00,
  0x10, 0x00, 0x00, 0x00, 0x0b, 0x00, 0x00, 0x00, 0x38, 0x00, 0x00, 0x00,
  0x64, 0xfc, 0xff, 0xff, 0x2a, 0x00, 0x00, 0x00, 0x6e, 0x65, 0x74, 0x77,
  0x6f, 0x72, 0x6b, 0x73, 0x2e, 0x71, 0x75, 0x61, 0x64, 0x62, 0x75, 0x67,
  0x2e, 0x6e, 0x65, 0x74, 0x77, 0x6f, 0x72, 0x6b, 0x73, 0x2e, 0x63, 0x6f,
  0x6e, 0x74, 0x72, 0x6f, 0x6c, 0x4e, 0x65, 0x74, 0x77, 0x6f, 0x72, 0x6b,
  0x3b, 0x31, 0x00, 0x00, 0x02, 0x00, 0x00, 0x00, 0x01, 0x00, 0x00, 0x00,
  0x18, 0x00, 0x00, 0x00, 0xd2, 0xfc, 0xff, 0xff, 0x00, 0x00, 0x00, 0x01,
  0x10, 0x00, 0x00, 0x00, 0x10, 0x00, 0x00, 0x00, 0x0a, 0x00, 0x00, 0x00,
  0x5c, 0x00, 0x00, 0x00, 0xbc, 0xfc, 0xff, 0xff, 0x4c, 0x00, 0x00, 0x00,
  0x6e, 0x65, 0x74, 0x77, 0x6f, 0x72, 0x6b, 0x73, 0x2e, 0x71, 0x75, 0x61,
  0x64, 0x62, 0x75, 0x67, 0x2e, 0x6e, 0x65, 0x74, 0x77, 0x6f, 0x72, 0x6b,
  0x73, 0x2e, 0x63, 0x6f, 0x6e, 0x74, 0x72, 0x6f, 0x6c, 0x4e, 0x65, 0x74,
  0x77, 0x6f, 0x72, 0x6b, 0x2f, 0x74, 0x6f, 0x72, 0x63, 0x68, 0x2e, 0x6e,
  0x6e, 0x2e, 0x6d, 0x6f, 0x64, 0x75, 0x6c, 0x65, 0x73, 0x2e, 0x6c, 0x69,
  0x6e, 0x65, 0x61, 0x72, 0x2e, 0x4c, 0x69, 0x6e, 0x65, 0x61, 0x72, 0x5f,
  0x66, 0x63, 0x32, 0x3b, 0x00, 0x00, 0x00, 0x00, 0x02, 0x00, 0x00, 0x00,
  0x01, 0x00, 0x00, 0x00, 0x18, 0x00, 0x00, 0x00, 0x4e, 0xfd, 0xff, 0xff,
  0x00, 0x00, 0x00, 0x01, 0x10, 0x00, 0x00, 0x00, 0x10, 0x00, 0x00, 0x00,
  0x09, 0x00, 0x00, 0x00, 0x38, 0x00, 0x00, 0x00, 0x38, 0xfd, 0xff, 0xff,
  0x29, 0x00, 0x00, 0x00, 0x6e, 0x65, 0x74, 0x77, 0x6f, 0x72, 0x6b, 0x73,
  0x2e, 0x71, 0x75, 0x61, 0x64, 0x62, 0x75, 0x67, 0x2e, 0x6e, 0x65, 0x74,
  0x77, 0x6f, 0x72, 0x6b, 0x73, 0x2e, 0x63, 0x6f, 0x6e, 0x74, 0x72, 0x6f,
  0x6c, 0x4e, 0x65, 0x74, 0x77, 0x6f, 0x72, 0x6b, 0x3b, 0x00, 0x00, 0x00,
  0x02, 0x00, 0x00, 0x00, 0x01, 0x00, 0x00, 0x00, 0x20, 0x00, 0x00, 0x00,
  0xa6, 0xfd, 0xff, 0xff, 0x00, 0x00, 0x00, 0x01, 0x10, 0x00, 0x00, 0x00,
  0x10, 0x00, 0x00, 0x00, 0x08, 0x00, 0x00, 0x00, 0x5c, 0x00, 0x00, 0x00,
  0x90, 0xfd, 0xff, 0xff, 0x4d, 0x00, 0x00, 0x00, 0x6e, 0x65, 0x74, 0x77,
  0x6f, 0x72, 0x6b, 0x73, 0x2e, 0x71, 0x75, 0x61, 0x64, 0x62, 0x75, 0x67,
  0x2e, 0x6e, 0x65, 0x74, 0x77, 0x6f, 0x72, 0x6b, 0x73, 0x2e, 0x63, 0x6f,
  0x6e, 0x74, 0x72, 0x6f, 0x6c, 0x4e, 0x65, 0x74, 0x77, 0x6f, 0x72, 0x6b,
  0x2f, 0x74, 0x6f, 0x72, 0x63, 0x68, 0x2e, 0x6e, 0x6e, 0x2e, 0x6d, 0x6f,
  0x64, 0x75, 0x6c, 0x65, 0x73, 0x2e, 0x6c, 0x69, 0x6e, 0x65, 0x61, 0x72,
  0x2e, 0x4c, 0x69, 0x6e, 0x65, 0x61, 0x72, 0x5f, 0x66, 0x63, 0x31, 0x3b,
  0x32, 0x00, 0x00, 0x00, 0x02, 0x00, 0x00, 0x00, 0x01, 0x00, 0x00, 0x00,
  0x20, 0x00, 0x00, 0x00, 0x22, 0xfe, 0xff, 0xff, 0x00, 0x00, 0x00, 0x01,
  0x10, 0x00, 0x00, 0x00, 0x10, 0x00, 0x00, 0x00, 0x07, 0x00, 0x00, 0x00,
  0x5c, 0x00, 0x00, 0x00, 0x0c, 0xfe, 0xff, 0xff, 0x4d, 0x00, 0x00, 0x00,
  0x6e, 0x65, 0x74, 0x77, 0x6f, 0x72, 0x6b, 0x73, 0x2e, 0x71, 0x75, 0x61,
  0x64, 0x62, 0x75, 0x67, 0x2e, 0x6e, 0x65, 0x74, 0x77, 0x6f, 0x72, 0x6b,
  0x73, 0x2e, 0x63, 0x6f, 0x6e, 0x74, 0x72, 0x6f, 0x6c, 0x4e, 0x65, 0x74,
  0x77, 0x6f, 0x72, 0x6b, 0x2f, 0x74, 0x6f, 0x72, 0x63, 0x68, 0x2e, 0x6e,
  0x6e, 0x2e, 0x6d, 0x6f, 0x64, 0x75, 0x6c, 0x65, 0x73, 0x2e, 0x6c, 0x69,
  0x6e, 0x65, 0x61, 0x72, 0x2e, 0x4c, 0x69, 0x6e, 0x65, 0x61, 0x72, 0x5f,
  0x66, 0x63, 0x31, 0x3b, 0x31, 0x00, 0x00, 0x00, 0x01, 0x00, 0x00, 0x00,
  0x20, 0x00, 0x00, 0x00, 0x9a, 0xfe, 0xff, 0xff, 0x00, 0x00, 0x00, 0x01,
  0x10, 0x00, 0x00, 0x00, 0x10, 0x00, 0x00, 0x00, 0x06, 0x00, 0x00, 0x00,
  0x5c, 0x00, 0x00, 0x00, 0x84, 0xfe, 0xff, 0xff, 0x4c, 0x00, 0x00, 0x00,
  0x6e, 0x65, 0x74, 0x77, 0x6f, 0x72, 0x6b, 0x73, 0x2e, 0x71, 0x75, 0x61,
  0x64, 0x62, 0x75, 0x67, 0x2e, 0x6e, 0x65, 0x74, 0x77, 0x6f, 0x72, 0x6b,
  0x73, 0x2e, 0x63, 0x6f, 0x6e, 0x74, 0x72, 0x6f, 0x6c, 0x4e, 0x65, 0x74,
  0x77, 0x6f, 0x72, 0x6b, 0x2f, 0x74, 0x6f, 0x72, 0x63, 0x68, 0x2e, 0x6e,
  0x6e, 0x2e, 0x6d, 0x6f, 0x64, 0x75, 0x6c, 0x65, 0x73, 0x2e, 0x6c, 0x69,
  0x6e, 0x65, 0x61, 0x72, 0x2e, 0x4c, 0x69, 0x6e, 0x65, 0x61, 0x72, 0x5f,
  0x66, 0x63, 0x31, 0x3b, 0x00, 0x00, 0x00, 0x00, 0x02, 0x00, 0x00, 0x00,
  0x20, 0x00, 0x00, 0x00, 0x0f, 0x00, 0x00, 0x00, 0x16, 0xff, 0xff, 0xff,
  0x00, 0x00, 0x00, 0x01, 0x10, 0x00, 0x00, 0x00, 0x10, 0x00, 0x00, 0x00,
  0x05, 0x00, 0x00, 0x00, 0x1c, 0x00, 0x00, 0x00, 0x00, 0xff, 0xff, 0xff,
  0x0f, 0x00, 0x00, 0x00, 0x61, 0x72, 0x69, 0x74, 0x68, 0x2e, 0x63, 0x6f,
  0x6e, 0x73, 0x74, 0x61, 0x6e, 0x74, 0x33, 0x00, 0x02, 0x00, 0x00, 0x00,
  0x18, 0x00, 0x00, 0x00, 0x20, 0x00, 0x00, 0x00, 0x52, 0xff, 0xff, 0xff,
  0x00, 0x00, 0x00, 0x01, 0x10, 0x00, 0x00, 0x00, 0x10, 0x00, 0x00, 0x00,
  0x04, 0x00, 0x00, 0x00, 0x1c, 0x00, 0x00, 0x00, 0x3c, 0xff, 0xff, 0xff,
  0x0f, 0x00, 0x00, 0x00, 0x61, 0x72, 0x69, 0x74, 0x68, 0x2e, 0x63, 0x6f,
  0x6e, 0x73, 0x74, 0x61, 0x6e, 0x74, 0x32, 0x00, 0x02, 0x00, 0x00, 0x00,
  0x06, 0x00, 0x00, 0x00, 0x18, 0x00, 0x00, 0x00, 0x8e, 0xff, 0xff, 0xff,
  0x00, 0x00, 0x00, 0x01, 0x10, 0x00, 0x00, 0x00, 0x10, 0x00, 0x00, 0x00,
  0x03, 0x00, 0x00, 0x00, 0x1c, 0x00, 0x00, 0x00, 0x78, 0xff, 0xff, 0xff,
  0x0f, 0x00, 0x00, 0x00, 0x61, 0x72, 0x69, 0x74, 0x68, 0x2e, 0x63, 0x6f,
  0x6e, 0x73, 0x74, 0x61, 0x6e, 0x74, 0x31, 0x00, 0x01, 0x00, 0x00, 0x00,
  0x18, 0x00, 0x00, 0x00, 0xc6, 0xff, 0xff, 0xff, 0x00, 0x00, 0x00, 0x01,
  0x10, 0x00, 0x00, 0x00, 0x10, 0x00, 0x00, 0x00, 0x02, 0x00, 0x00, 0x00,
  0x1c, 0x00, 0x00, 0x00, 0xb0, 0xff, 0xff, 0xff, 0x0e, 0x00, 0x00, 0x00,
  0x61, 0x72, 0x69, 0x74, 0x68, 0x2e, 0x63, 0x6f, 0x6e, 0x73, 0x74, 0x61,
  0x6e, 0x74, 0x00, 0x00, 0x01, 0x00, 0x00, 0x00, 0x06, 0x00, 0x00, 0x00,
  0x00, 0x00, 0x16, 0x00, 0x18, 0x00, 0x14, 0x00, 0x00, 0x00, 0x10, 0x00,
  0x0c, 0x00, 0x08, 0x00, 0x00, 0x00, 0x00, 0x00, 0x00, 0x00, 0x07, 0x00,
  0x16, 0x00, 0x00, 0x00, 0x00, 0x00, 0x00, 0x01, 0x14, 0x00, 0x00, 0x00,
  0x14, 0x00, 0x00, 0x00, 0x01, 0x00, 0x00, 0x00, 0x2c, 0x00, 0x00, 0x00,
  0x04, 0x00, 0x04, 0x00, 0x04, 0x00, 0x00, 0x00, 0x18, 0x00, 0x00, 0x00,
  0x73, 0x65, 0x72, 0x76, 0x69, 0x6e, 0x67, 0x5f, 0x64, 0x65, 0x66, 0x61,
  0x75, 0x6c, 0x74, 0x5f, 0x61, 0x72, 0x67, 0x73, 0x5f, 0x30, 0x3a, 0x30,
  0x00, 0x00, 0x00, 0x00, 0x02, 0x00, 0x00, 0x00, 0x01, 0x00, 0x00, 0x00,
  0x0f, 0x00, 0x00, 0x00, 0x02, 0x00, 0x00, 0x00, 0x2c, 0x00, 0x00, 0x00,
  0x10, 0x00, 0x00, 0x00, 0x0c, 0x00, 0x0c, 0x00, 0x0b, 0x00, 0x00, 0x00,
  0x00, 0x00, 0x04, 0x00, 0x0c, 0x00, 0x00, 0x00, 0x1c, 0x00, 0x00, 0x00,
  0x00, 0x00, 0x00, 0x1c, 0x0c, 0x00, 0x10, 0x00, 0x0f, 0x00, 0x00, 0x00,
  0x08, 0x00, 0x04, 0x00, 0x0c, 0x00, 0x00, 0x00, 0x09, 0x00, 0x00, 0x00,
  0x05, 0x00, 0x00, 0x00, 0x00, 0x00, 0x00, 0x09
};
